{"<unk>": 0, "<s>": 1, "</s>": 2, "<pad>": 3, "\u2581.": 4, "\u2581a": 5, "\u02d0": 6, "\u2581\u02e7": 7, "h": 8, "\u2581": 9, "\u2581\u02e8\u02e9": 10, "\u031a": 11, "\u2581\u02e6\u02e5": 12, "\u2581n": 13, "\u2581t": 14, "\u2581\u02e5\u02e9": 15, "\u2581k": 16, "\u2581i": 17, "\u2581m": 18, "s": 19, "j": 20, "k": 21, "\u2581\u02e9\u02e9\u02e6": 22, "\u2581r": 23, "\u2581\u014b": 24, "\u2581p": 25, "\u2581o": 26, "\u2581\u0254": 27, "w": 28, "\u2581u": 29, "p": 30, "\u2581l": 31, "\u2581e": 32, "t": 33, "b": 34, "\u2581t\u0361\u0255": 35, "\u2581\u025b": 36, "\u0294": 37, "d": 38, "m": 39, "t\u0361\u0255": 40, "n": 41, "\u2581ua\u032f": 42, "\u2581ia\u032f": 43, "r": 44, "l": 45, "\u2581\u0264": 46, "\u2581\u0294": 47, "f": 48, "\u2581\u026f": 49, "\u0e01": 50, "\u0e21": 51, "\u0e01\u0e32\u0e23": 52, "\u0e19": 53, "\u2581\u026fa\u032f": 54, "\u0e07": 55, "\u2581aw": 56, "\u0e4c": 57, "\u0e1a": 58, "\u0e2a": 59, "\u2581a\u032f": 60, "\u0e14": 61, "\u0e04\u0e27\u0e32\u0e21": 62, "\u2581a\u0294": 63, "\u0e22": 64, ".": 65, "\u2581r\u026f": 66, "\u0e30": 67, "\u0e27": 68, "\u0e2d": 69, "\u0e15": 70, "\u014b": 71, "\u0e04": 72, "\u0e32": 73, "\u0e19\u0e49\u0e4d\u0e32": 74, "\u0e17": 75, "\u0e25": 76, "\u0e43\u0e08": 77, "\u0e1b": 78, "\u2581l\u026f": 79, "\u0e14\u0e35": 80, "\u0e1e": 81, "\u0e23": 82, "\u0e2b\u0e19\u0e49\u0e32": 83, "\u0e19\u0e32": 84, "\u0e40": 85, "\u0e35": 86, "\u0e1c\u0e39\u0e49": 87, "\u2581\u0254\u0294": 88, "\u0e2b": 89, "\u0e22\u0e4c": 90, "\u2581\u025b\u0294": 91, "\u0e19\u0e31\u0e01": 92, "\u0e0a": 93, "\u0e44\u0e1f": 94, "\u0e23\u0e32\u0e0a": 95, "\u0e15\u0e31\u0e27": 96, "\u0e08": 97, "a": 98, "\u0e28\u0e32\u0e2a\u0e15\u0e23\u0e4c": 99, "\u0e02": 100, "\u0e15\u0e32": 101, "\u0e01\u0e32": 102, "\u0e44\u0e21\u0e49": 103, "\u0e2d\u0e07": 104, "\u0e2d\u0e19": 105, "r\u026f": 106, "\u0e0b": 107, "\u0e28": 108, "\u0e01\u0e23": 109, "\u0e41": 110, "\u0e25\u0e39\u0e01": 111, "\u0e18\u0e23\u0e23\u0e21": 112, "\u0e23\u0e30": 113, "\u0e48\u0e07": 114, "\u0e21\u0e32": 115, "l\u026f": 116, "\u0e0a\u0e19": 117, "\u0e23\u0e31\u0e10": 118, "\u0e2a\u0e32\u0e23": 119, "\u0e01\u0e23\u0e23\u0e21": 120, "\u0e2d\u0e01": 121, "\u0e17\u0e35\u0e48": 122, "\u0e0a\u0e32": 123, "\u0e1b\u0e23\u0e30": 124, "\u0e01\u0e31\u0e19": 125, "\u0e1f": 126, "\u0e40\u0e01": 127, "\u0e1f\u0e49\u0e32": 128, "\u02e7": 129, "\u0e21\u0e37\u0e2d": 130, "\u0e40\u0e04\u0e23\u0e37\u0e48\u0e2d\u0e07": 131, "\u0e22\u0e32": 132, "\u0e27\u0e07": 133, "\u0e2b\u0e21\u0e32\u0e22": 134, "\u0e02\u0e35\u0e49": 135, "\u0e20\u0e32\u0e1e": 136, "\u0e32\u0e19": 137, "\u0e32\u0e22": 138, "\u0e31\u0e22": 139, "\u0e20": 140, "\u0e27\u0e32": 141, "\u0e2a\u0e21": 142, "\u0e27\u0e19": 143, "\u0e2d\u0e32": 144, "\u0e40\u0e08\u0e49\u0e32": 145, "\u0e02\u0e49\u0e32\u0e27": 146, "\u0e0d": 147, "\u0e19\u0e32\u0e21": 148, "\u0e16": 149, "\u0e23\u0e39\u0e1b": 150, "\u0e23\u0e35": 151, "\u0e02\u0e49\u0e2d": 152, "\u0e0a\u0e32\u0e15\u0e34": 153, "\u0e04\u0e19": 154, "\u0e31\u0e14": 155, "\u0e42": 156, "\u0e17\u0e2d\u0e07": 157, "\u0e09": 158, "\u0e27\u0e34": 159, "\u02e8\u02e9": 160, "\u0e48": 161, "\u0e15\u0e4c": 162, "\u0e2a\u0e35": 163, "\u0e34": 164, "\u0e21\u0e35": 165, "\u0e0b\u0e35": 166, "\u0e2a\u0e32\u0e22": 167, "\u0e40\u0e2a\u0e35\u0e22": 168, "\u0e21\u0e30": 169, "\u0e01\u0e23\u0e30": 170, "\u0e44": 171, "\u0e2b\u0e31\u0e27": 172, "\u0e2d\u0e2d\u0e01": 173, "\u0e23\u0e4c": 174, "\u0e31\u0e49\u0e19": 175, "\u0e01\u0e34\u0e19": 176, "\u0e28\u0e01": 177, "\u0e13\u0e4c": 178, "\u0e40\u0e17": 179, "\u0e1b\u0e32\u0e01": 180, "\u0e2a\u0e4c": 181, "\u0e41\u0e21\u0e48": 182, "\u0e18": 183, "\u0e1e\u0e25": 184, "\u0e14\u0e32": 185, "\u0e23\u0e32": 186, "\u0e17\u0e32\u0e07": 187, "\u0e42\u0e2d": 188, "\u0e1a\u0e17": 189, "\u0e20\u0e39\u0e21\u0e34": 190, "\u0e01\u0e25\u0e32\u0e07": 191, "\u0e40\u0e1b\u0e47\u0e19": 192, "\u0e25\u0e32": 193, "\u0e04\u0e4d\u0e32": 194, "\u0e07\u0e32\u0e19": 195, "\u02e6\u02e5": 196, "\u0e27\u0e31\u0e19": 197, "\u0e1c\u0e25": 198, "\u0e27\u0e34\u0e17\u0e22\u0e32": 199, "\u0e40\u0e2d": 200, "\u0e42\u0e21": 201, "\u0e40\u0e21\u0e37\u0e2d\u0e07": 202, "\u0e42\u0e04": 203, "\u0e2b\u0e34\u0e19": 204, "\u0e40\u0e15": 205, "\u0e44\u0e2d": 206, "\u0e41\u0e23\u0e07": 207, "\u0e1f\u0e31\u0e19": 208, "\u0e1b\u0e25\u0e32": 209, "\u0e49\u0e07": 210, "\u0e1c": 211, "\u0e1e\u0e32": 212, "\u0e2b\u0e39": 213, "\u0e08\u0e4d\u0e32": 214, "\u0e17\u0e32\u0e19": 215, "\u0e40\u0e2a": 216, "\u0e44\u0e02\u0e48": 217, "\u0e40\u0e0b": 218, "\u0e23\u0e49\u0e2d\u0e19": 219, "\u0e14\u0e34\u0e19": 220, "\u0e0a\u0e32\u0e22": 221, "\u0e40\u0e14": 222, "\u0e43\u0e15\u0e49": 223, "\u0e0b\u0e32": 224, "\u0e19\u0e34\u0e22\u0e21": 225, "\u0e40\u0e07\u0e34\u0e19": 226, "\u0e27\u0e48\u0e32": 227, "\u0e40\u0e23": 228, "\u0e2a\u0e31\u0e21": 229, "\u0e48\u0e19": 230, "\u0e1a\u0e32": 231, "\u0e40\u0e19\u0e35\u0e22": 232, "\u0e25\u0e34": 233, "\u0e2d\u0e38\u0e1b": 234, "\u0e01\u0e25": 235, "\u0e2a\u0e38": 236, "\u0e19\u0e4c": 237, "\u0e32\u0e25": 238, "\u0e14\u0e4d\u0e32": 239, "\u0e40\u0e04": 240, "\u0e42\u0e25\u0e01": 241, "\u0e01\u0e30": 242, "\u0e2a\u0e16\u0e32\u0e19": 243, "\u0e40\u0e2d\u0e01": 244, "\u0e25\u0e21": 245, "\u0e49": 246, "\u0e2b\u0e25\u0e31\u0e07": 247, "\u0e27\u0e31\u0e14": 248, "\u0e1b\u0e0f\u0e34": 249, "\u0e15\u0e35": 250, "\u0e27\u0e22": 251, "\u0e2b\u0e21\u0e32": 252, "\u0e1b\u0e23": 253, "\u0e41\u0e14": 254, "\u0e1b\u0e48\u0e32": 255, "\u0e27\u0e14": 256, "\u0e07\u0e04\u0e4c": 257, "\u0e43\u0e2b\u0e0d\u0e48": 258, "\u0e40\u0e22\u0e47\u0e19": 259, "\u0e04\u0e32": 260, "\u0e44\u0e01\u0e48": 261, "\u0e42\u0e23\u0e04": 262, "\u0e1b\u0e32": 263, "\u0e19\u0e15\u0e4c": 264, "\u0e02\u0e2d\u0e07": 265, "\u0e02\u0e32": 266, "\u0e40\u0e1e\u0e28": 267, "\u0e42\u0e01": 268, "\u0e44\u0e21\u0e48": 269, "\u0e42\u0e23\u0e07": 270, "\u0e1c\u0e49\u0e32": 271, "\u0e23\u0e31\u0e1a": 272, "\u0e35\u0e22\u0e21": 273, "\u0e2d\u0e23\u0e4c": 274, "\u0e14\u0e32\u0e27": 275, "\u0e1b\u0e35": 276, "\u0e23\u0e31\u0e01": 277, "\u0e04\u0e48\u0e32": 278, "\u0e01\u0e4d\u0e32": 279, "\u0e15\u0e31\u0e14": 280, "\u0e04\u0e23": 281, "\u0e04\u0e2d": 282, "\u0e23\u0e13\u0e4c": 283, "\u0e40\u0e15\u0e2d\u0e23\u0e4c": 284, "\u0e48\u0e32": 285, "\u0e17\u0e30\u0e40\u0e25": 286, "\u0e0f": 287, "\u0e19\u0e21": 288, "\u0e40\u0e17\u0e28": 289, "\u0e41\u0e1a\u0e1a": 290, "\u0e2d\u0e32\u0e2b\u0e32\u0e23": 291, "\u0e41\u0e02\u0e47\u0e07": 292, "\u0e1a\u0e49\u0e32\u0e19": 293, "\u0e19\u0e30": 294, "\u0e2b\u0e21\u0e32\u0e01": 295, "\u0e15\u0e32\u0e22": 296, "\u0e1c\u0e35": 297, "\u0e41\u0e04": 298, "\u0e40\u0e02\u0e49\u0e32": 299, "\u0e2a\u0e32\u0e27": 300, "\u0e31\u0e19": 301, "\u0e44\u0e17\u0e22": 302, "\u0e2e": 303, "\u0e1e\u0e34": 304, "\u0e1a\u0e38\u0e23\u0e35": 305, "\u0e21\u0e49\u0e32": 306, "\u0e15\u0e48\u0e2d": 307, "\u0e2d\u0e14": 308, "\u0e44\u0e2a\u0e49": 309, "\u0e13": 310, "\u0e40\u0e25\u0e48\u0e19": 311, "\u0e2b\u0e4c": 312, "\u0e32\u0e18\u0e34\u0e1b\u0e44\u0e15\u0e22": 313, "\u0e44\u0e0b": 314, "\u0e42\u0e23": 315, "\u0e0b\u0e34": 316, "\u0e2a\u0e31\u0e15\u0e27\u0e4c": 317, "\u0e36\u0e07": 318, "\u02e5\u02e9": 319, "\u0e17\u0e4d\u0e32": 320, "\u0e2d\u0e30": 321, "\u0e4d\u0e32": 322, "\u0e24": 323, "\u0e42\u0e15": 324, "\u0e02\u0e19": 325, "\u0e19\u0e32\u0e07": 326, "\u0e40\u0e21\u0e35\u0e22": 327, "\u0e34\u0e14": 328, "\u0e25\u0e32\u0e22": 329, "\u0e23\u0e16": 330, "\u0e40\u0e23\u0e35\u0e22": 331, "\u0e39": 332, "\u0e09\u0e31\u0e19": 333, "\u0e25\u0e07": 334, "\u0e20\u0e32\u0e29\u0e32": 335, "\u0e40\u0e2a\u0e49\u0e19": 336, "\u0e44\u0e1b": 337, "\u0e14\u0e39": 338, "\u0e19\u0e49\u0e2d\u0e22": 339, "\u0e32\u0e27": 340, "\u0e43\u0e0a\u0e49": 341, "\u0e1e\u0e31\u0e19\u0e18": 342, "\u0e20\u0e31\u0e22": 343, "\u0e04\u0e38\u0e13": 344, "\u0e1e\u0e37\u0e0a": 345, "\u0e42\u0e17\u0e29": 346, "\u0e10\u0e32\u0e19": 347, "\u0e2a\u0e48\u0e27\u0e19": 348, "\u0e2d\u0e1a": 349, "\u0e2a\u0e32": 350, "\u0e40\u0e23\u0e37\u0e2d": 351, "\u0e40\u0e2b\u0e47\u0e19": 352, "\u0e2d\u0e38": 353, "\u0e2b\u0e25\u0e27\u0e07": 354, "\u0e28\u0e32\u0e25": 355, "\u0e19\u0e34": 356, "\u0e21\u0e34": 357, "\u0e2d\u0e25": 358, "\u0e40\u0e1a": 359, "\u0e40\u0e2b\u0e15\u0e38": 360, "\u0e25\u0e4d\u0e32": 361, "\u0e2a\u0e32\u0e21": 362, "\u0e19\u0e35": 363, "\u0e41\u0e25\u0e19\u0e14\u0e4c": 364, "\u0e17\u0e2d\u0e14": 365, "\u0e32\u0e21": 366, "\u0e15\u0e34": 367, "\u0e42\u0e14": 368, "\u0e34\u0e15": 369, "\u0e34\u0e07": 370, "\u0e39\u0e48": 371, "\u0e19\u0e2d\u0e19": 372, "\u0e25\u0e2d\u0e07": 373, "\u0e40\u0e02\u0e32": 374, "\u0e19\u0e4d\u0e32": 375, "\u0e15\u0e01": 376, "\u0e48\u0e2d\u0e19": 377, "\u0e02\u0e31\u0e19": 378, "\u0e43\u0e1a": 379, "\u0e38\u0e19": 380, "\u0e25\u0e30": 381, "\u0e40\u0e25": 382, "\u0e27\u0e32\u0e23": 383, "\u0e41\u0e25": 384, "\u0e27\u0e32\u0e07": 385, "\u0e1e\u0e48\u0e2d": 386, "\u0e19\u0e48\u0e32": 387, "\u0e42\u0e1a": 388, "\u0e2a\u0e15\u0e4c": 389, "\u0e2d\u0e21": 390, "\u0e44\u0e14\u0e49": 391, "\u0e1e\u0e31\u0e01": 392, "\u0e1b\u0e23\u0e30\u0e42\u0e22\u0e04": 393, "\u0e1a\u0e31\u0e07\u0e04\u0e31\u0e1a": 394, "\u0e01\u0e23\u0e30\u0e14\u0e32\u0e19": 395, "\u0e20\u0e32\u0e04": 396, "\u0e23\u0e49\u0e32\u0e22": 397, "\u0e0b\u0e2d": 398, "\u0e17\u0e31": 399, "\u0e40\u0e17\u0e49\u0e32": 400, "\u0e2a\u0e34\u0e1a": 401, "\u0e40\u0e2a\u0e37\u0e49\u0e2d": 402, "\u0e04\u0e39\u0e48": 403, "\u0e08\u0e23": 404, "\u0e49\u0e2d\u0e22": 405, "\u0e40\u0e2a\u0e37\u0e2d": 406, "\u0e32\u0e07": 407, "\u0e42\u0e17": 408, "\u0e41\u0e2a\u0e07": 409, "\u0e43\u0e2b\u0e49": 410, "\u0e35\u0e48": 411, "\u0e40\u0e09": 412, "\u0e40\u0e14\u0e47\u0e01": 413, "\u0e0a\u0e31\u0e22": 414, "\u0e40\u0e08": 415, "\u0e31\u0e1a": 416, "\u0e40\u0e02": 417, "\u0e40\u0e19\u0e37\u0e49\u0e2d": 418, "\u0e40\u0e21": 419, "\u0e08\u0e30": 420, "\u0e27\u0e31": 421, "\u0e1d": 422, "\u0e43": 423, "\u0e40\u0e27": 424, "\u0e23\u0e32\u0e22": 425, "\u0e2b\u0e32": 426, "\u0e04\u0e32\u0e23": 427, "\u0e2d\u0e19\u0e38": 428, "\u0e1e\u0e31\u0e19": 429, "\u0e37\u0e2d": 430, "\u0e13\u0e35": 431, "\u0e43\u0e19": 432, "\u0e2a\u0e27\u0e19": 433, "\u0e40\u0e2a\u0e35\u0e22\u0e07": 434, "\u0e01\u0e32\u0e25": 435, "\u0e31\u0e48\u0e07": 436, "\u0e38\u0e48\u0e19": 437, "\u0e2b\u0e21\u0e39": 438, "\u0e40\u0e1b": 439, "\u0e2a\u0e23\u0e30": 440, "\u0e2b\u0e22": 441, "\u0e34\u0e49\u0e07": 442, "\u0e17\u0e23\u0e31\u0e1e\u0e22\u0e4c": 443, "\u0e1e\u0e31\u0e19\u0e18\u0e38\u0e4c": 444, "\u0e40\u0e2b\u0e19\u0e37\u0e2d": 445, "\u0e0a\u0e35\u0e27\u0e34\u0e15": 446, "\u0e1b\u0e23\u0e30\u0e40\u0e17\u0e28": 447, "\u0e21\u0e19\u0e15\u0e23\u0e35": 448, "\u0e44\u0e17": 449, "\u0e1b\u0e37\u0e19": 450, "\u0e41\u0e21\u0e27": 451, "\u0e0a\u0e48\u0e32\u0e07": 452, "\u0e22\u0e38\u0e17\u0e18": 453, "\u0e40\u0e25\u0e35\u0e49\u0e22\u0e07": 454, "\u02e9\u02e9\u02e6": 455, "\u0e19\u0e04\u0e23": 456, "\u0e42\u0e2a": 457, "\u0e06\u0e32\u0e15": 458, "\u0e41\u0e0b": 459, "\u0e2a\u0e23\u0e23\u0e1e": 460, "\u0e17\u0e35": 461, "\u0e15\u0e23": 462, "\u0e0a\u0e31\u0e01": 463, "\u0e2d\u0e34": 464, "\u0e44\u0e21": 465, "\u0e48\u0e2d\u0e22": 466, "\u0e19\u0e34\u0e2a": 467, "\u0e2d\u0e48\u0e2d\u0e19": 468, "\u0e2b\u0e49\u0e2d\u0e07": 469, "\u0e27\u0e31\u0e15\u0e16\u0e38": 470, "\u0e34\u0e19": 471, "\u0e1e\u0e23\u0e30": 472, "\u0e40\u0e01\u0e49\u0e32": 473, "\u0e14\u0e2d\u0e01": 474, "\u0e49\u0e32": 475, "\u0e31\u0e07": 476, "\u0e19\u0e49\u0e4d\u0e32\u0e21\u0e31\u0e19": 477, "\u0e19\u0e35\u0e49": 478, "\u0e2b\u0e32\u0e22": 479, "\u0e41\u0e15\u0e01": 480, "\u0e44\u0e23": 481, "\u0e40\u0e25\u0e35\u0e22": 482, "\u0e1a\u0e31\u0e15\u0e23": 483, "\u0e25\u0e31\u0e1a": 484, "\u0e08\u0e32": 485, "\u0e15\u0e48\u0e32\u0e07": 486, "\u0e42\u0e19": 487, "\u0e15\u0e34\u0e14": 488, "\u0e2a\u0e38\u0e14": 489, "\u0e49\u0e19": 490, "\u0e19\u0e32\u0e22": 491, "\u0e2b\u0e49\u0e32": 492, "\u0e41\u0e2a": 493, "\u0e04\u0e39": 494, "\u0e39\u0e14": 495, "\u0e38": 496, "\u0e31\u0e01": 497, "\u0e1a\u0e38\u0e0d": 498, "\u0e31\u0e48\u0e19": 499, "\u0e23\u0e2d\u0e07": 500, "\u0e41\u0e01\u0e49": 501, "\u0e23\u0e21": 502, "\u0e35\u0e22\u0e19": 503, "\u0e41\u0e2d": 504, "\u0e08\u0e31\u0e01\u0e23": 505, "\u0e2d\u0e27": 506, "\u0e43\u0e2a": 507, "\u0e21\u0e19\u0e38\u0e29\u0e22": 508, "\u0e25\u0e31\u0e01\u0e29\u0e13": 509, "\u0e1b\u0e10\u0e21": 510, "\u0e40\u0e21\u0e29": 511, "\u0e1d\u0e23\u0e31\u0e48\u0e07": 512, "\u0e21\u0e19\u0e38\u0e29\u0e22\u0e4c": 513, "\u0e42\u0e04\u0e23\u0e07": 514, "\u0e40\u0e0b\u0e35\u0e22": 515, "\u0e41\u0e1e": 516, "\u0e41\u0e1e\u0e17\u0e22\u0e4c": 517, "\u0e21\u0e38\u0e21": 518, "\u0e42\u0e15\u0e4a\u0e30": 519, "\u0e25\u0e35": 520, "\u0e2d\u0e35": 521, "\u0e02\u0e49\u0e32\u0e07": 522, "\u0e1e\u0e35\u0e48": 523, "\u0e40\u0e25\u0e47\u0e1a": 524, "\u0e41\u0e1f": 525, "\u0e1a\u0e31\u0e27": 526, "\u0e40\u0e0a": 527, "\u0e22\u0e32\u0e27": 528, "\u0e2b\u0e2d": 529, "\u0e40\u0e17\u0e1e": 530, "\u0e19\u0e34\u0e01": 531, "\u0e27\u0e23\u0e4c": 532, "\u0e22\u0e2d\u0e14": 533, "\u0e08\u0e31\u0e14": 534, "\u0e2b\u0e19\u0e39": 535, "\u0e2a\u0e19": 536, "\u0e0a\u0e49\u0e32": 537, "\u0e08\u0e35\u0e19": 538, "\u0e31\u0e07\u0e01\u0e23": 539, "\u0e2b\u0e01": 540, "\u0e1a\u0e32\u0e17": 541, "\u0e02\u0e2d": 542, "\u0e34\u0e1a": 543, "\u0e1b\u0e34\u0e14": 544, "\u0e08\u0e35": 545, "\u0e36\u0e01": 546, "\u0e34\u0e48\u0e07": 547, "\u0e2b\u0e2d\u0e22": 548, "\u0e19\u0e49\u0e2d\u0e07": 549, "\u0e40\u0e0b\u0e2d\u0e23\u0e4c": 550, "\u0e27\u0e01": 551, "\u0e2d\u0e22": 552, "\u0e21\u0e14": 553, "\u0e15\u0e2d\u0e19": 554, "\u0e01\u0e31\u0e1a": 555, "\u0e17\u0e48\u0e32": 556, "\u0e1a\u0e23\u0e34": 557, "\u0e22\u0e32\u0e19": 558, "\u0e2a\u0e2d\u0e1a": 559, "\u0e34\u0e19\u0e35": 560, "\u0e1f\u0e31\u0e07": 561, "\u0e40\u0e14\u0e35\u0e22\u0e27": 562, "\u0e25\u0e49\u0e32\u0e07": 563, "\u0e1b\u0e30": 564, "\u0e23\u0e31\u0e07": 565, "\u0e1a\u0e2d\u0e25": 566, "i": 567, "\u0e08\u0e38\u0e25": 568, "\u0e21\u0e2b\u0e32": 569, "\u0e17\u0e38\u0e01": 570, "\u0e32\u0e0d": 571, "\u0e0a\u0e39": 572, "\u0e25\u0e34\u0e07": 573, "\u0e42\u0e22": 574, "\u0e02\u0e38\u0e19": 575, "\u0e1a\u0e38\u0e23\u0e38\u0e29": 576, "\u0e1e\u0e34\u0e21\u0e1e\u0e4c": 577, "\u0e40\u0e0a\u0e37\u0e49\u0e2d": 578, "\u0e1e\u0e37\u0e49\u0e19": 579, "\u0e2a\u0e32\u0e18\u0e32\u0e23\u0e13\u0e23\u0e31\u0e10": 580, "\u0e04\u0e13\u0e30": 581, "\u0e44\u0e02\u0e49": 582, "\u0e17\u0e39\u0e15": 583, "\u0e15\u0e49\u0e19": 584, "\u0e04\u0e37\u0e19": 585, "\u0e2a\u0e23\u0e49\u0e32\u0e07": 586, "\u0e40\u0e23\u0e37\u0e48\u0e2d\u0e07": 587, "\u0e08\u0e34\u0e15": 588, "\u0e0a\u0e48\u0e27\u0e22": 589, "\u0e42\u0e08\u0e23": 590, "\u0e2d\u0e20\u0e34": 591, "\u0e40\u0e14\u0e35\u0e22": 592, "\u0e1a\u0e31\u0e07": 593, "\u0e2a\u0e21\u0e2d\u0e07": 594, "\u0e38\u0e48\u0e21": 595, "\u0e2a\u0e4d\u0e32": 596, "a\u032f": 597, "\u0e41\u0e17": 598, "\u0e01\u0e23\u0e30\u0e14\u0e39\u0e01": 599, "\u0e40\u0e27\u0e17": 600, "\u0e1b\u0e34": 601, "\u2581o\u0294": 602, "\u0e2a\u0e34\u0e17\u0e18\u0e34": 603, "\u0e48\u0e32\u0e07": 604, "\u0e2a\u0e31\u0e0d\u0e0d\u0e32": 605, "\u0e1f\u0e32": 606, "\u0e48\u0e27\u0e07": 607, "\u0e2b\u0e32\u0e07": 608, "\u0e41\u0e22": 609, "\u0e1a\u0e34\u0e19": 610, "\u0e41\u0e1b\u0e23": 611, "\u0e2a\u0e07": 612, "\u0e14\u0e31\u0e1a": 613, "\u0e2b\u0e19\u0e31\u0e07\u0e2a\u0e37\u0e2d": 614, "\u0e01\u0e38": 615, "\u0e08\u0e4d\u0e32\u0e19\u0e27\u0e19": 616, "\u0e32\u0e23": 617, "\u0e2b\u0e2d\u0e21": 618, "\u0e25\u0e34\u0e19": 619, "\u0e2b\u0e25\u0e31\u0e01": 620, "\u0e23\u0e4d\u0e32": 621, "\u0e27\u0e35": 622, "\u0e42\u0e1b": 623, "\u0e23\u0e34": 624, "\u0e2b\u0e19": 625, "\u0e43\u0e22": 626, "\u0e1e\u0e35": 627, "\u0e40\u0e1a\u0e35\u0e22": 628, "\u0e23\u0e2a": 629, "\u0e27\u0e32\u0e2a": 630, "\u0e41\u0e2b": 631, "\u0e17\u0e23\u0e07": 632, "\u0e40\u0e25\u0e37\u0e2d\u0e14": 633, "\u0e32\u0e30": 634, "\u0e1e\u0e23": 635, "\u0e2a\u0e1a": 636, "\u0e2a\u0e16": 637, "\u0e0d\u0e32": 638, "\u0e2b\u0e25\u0e07": 639, "\u0e1a\u0e32\u0e19": 640, "\u0e17\u0e4c": 641, "\u0e23\u0e39": 642, "\u0e27\u0e32\u0e22": 643, "\u0e23\u0e35\u0e14": 644, "\u0e2b\u0e25": 645, "\u0e04\u0e23\u0e31\u0e27": 646, "\u0e04\u0e2d\u0e19": 647, "\u0e2a\u0e30": 648, "\u0e44\u0e27": 649, "\u0e25\u0e31\u0e01": 650, "\u0e1b\u0e23\u0e30\u0e0a\u0e32": 651, "\u0e17\u0e32": 652, "\u0e21\u0e35\u0e19": 653, "\u0e2b\u0e21": 654, "\u0e31\u0e0d": 655, "\u0e25\u0e48\u0e32": 656, "\u0e17\u0e14": 657, "\u0e41\u0e1b\u0e25": 658, "\u0e02\u0e19\u0e21": 659, "\u0e42\u0e2b": 660, "\u0e25\u0e48\u0e21": 661, "\u0e49\u0e32\u0e07": 662, "\u0e41\u0e1b\u0e14": 663, "\u0e15\u0e30": 664, "\u0e1a\u0e31\u0e19": 665, "\u0e41\u0e01": 666, "\u0e2a\u0e48\u0e07": 667, "\u0e2b\u0e0d\u0e34\u0e07": 668, "\u0e2a\u0e31": 669, "\u0e23\u0e49\u0e32": 670, "\u0e39\u0e25": 671, "\u0e2d\u0e2d": 672, "\u0e1b\u0e23\u0e32": 673, "\u0e29\u0e35": 674, "\u0e2a\u0e34\u0e19": 675, "\u0e0a\u0e2d\u0e1a": 676, "\u0e0b\u0e39": 677, "\u0e21\u0e38": 678, "\u0e40\u0e19": 679, "\u0e22\u0e32\u0e21": 680, "\u0e23\u0e48\u0e32\u0e07": 681, "\u0e40\u0e22": 682, "\u0e23\u0e48\u0e27\u0e21": 683, "\u0e40\u0e25\u0e02": 684, "\u0e21\u0e2d\u0e07": 685, "\u0e18\u0e19": 686, "\u0e40\u0e28\u0e23\u0e29\u0e10": 687, "\u0e2d\u0e31\u0e01\u0e29\u0e23": 688, "\u0e1a\u0e38\u0e04\u0e04\u0e25": 689, "\u0e23\u0e30\u0e40\u0e1a\u0e34\u0e14": 690, "\u0e2d\u0e32\u0e01\u0e32\u0e28": 691, "\u0e1d\u0e38\u0e48\u0e19": 692, "\u0e25\u0e30\u0e04\u0e23": 693, "\u0e40\u0e02\u0e35\u0e22\u0e27": 694, "\u0e16\u0e31\u0e48\u0e27": 695, "\u0e1e\u0e23\u0e30\u0e23\u0e32\u0e0a": 696, "\u0e2b\u0e38\u0e48\u0e19": 697, "\u0e04\u0e13\u0e34\u0e15": 698, "\u0e1e\u0e38\u0e17\u0e18": 699, "\u0e23\u0e30\u0e1a\u0e1a": 700, "\u0e15\u0e39\u0e49": 701, "\u0e40\u0e1e\u0e25\u0e07": 702, "\u0e28\u0e23\u0e35": 703, "\u0e41\u0e2d\u0e25": 704, "\u0e25\u0e2d\u0e22": 705, "\u0e08\u0e48\u0e32\u0e22": 706, "\u0e40\u0e23\u0e37\u0e2d\u0e19": 707, "\u0e41\u0e01\u0e07": 708, "\u0e25\u0e34\u0e49\u0e19": 709, "\u0e40\u0e08\u0e47\u0e14": 710, "\u0e44\u0e2b\u0e27": 711, "\u0e47\u0e15": 712, "\u0e2a\u0e34": 713, "\u0e23\u0e2d\u0e22": 714, "\u0e01\u0e38\u0e49\u0e07": 715, "\u0e34\u0e21": 716, "\u0e02\u0e31\u0e1a": 717, "\u0e31\u0e48\u0e27": 718, "\u0e20\u0e32": 719, "\u0e17\u0e38": 720, "\u0e49\u0e2d\u0e19": 721, "\u0e2d\u0e31\u0e1b": 722, "\u0e15\u0e4d\u0e32": 723, "\u0e1b\u0e23\u0e34": 724, "\u0e2b\u0e19\u0e32": 725, "\u0e2a\u0e34\u0e49\u0e19": 726, "\u0e42\u0e17\u0e23": 727, "\u0e2a\u0e20\u0e32": 728, "\u0e01\u0e32\u0e22": 729, "\u0e0a\u0e32\u0e27": 730, "\u0e2d\u0e07\u0e04\u0e4c": 731, "\u0e07\u0e39": 732, "\u0e28\u0e23": 733, "\u0e1a\u0e32\u0e15\u0e23": 734, "\u0e1b\u0e25": 735, "\u0e15\u0e23\u0e07": 736, "\u0e48\u0e2d": 737, "\u0e01\u0e0b\u0e4c": 738, "\u0e17\u0e23": 739, "\u0e1d\u0e19": 740, "\u0e1e\u0e23\u0e34\u0e01": 741, "\u0e41\u0e25\u0e49\u0e27": 742, "\u0e22\u0e39": 743, "\u0e0a\u0e35": 744, "\u0e42\u0e14\u0e22": 745, "\u0e15\u0e23\u0e32": 746, "\u0e22\u0e37": 747, "\u0e15\u0e31\u0e49\u0e07": 748, "\u0e01\u0e23\u0e30\u0e17": 749, "\u0e21\u0e34\u0e15": 750, "\u0e41\u0e08": 751, "\u0e1b\u0e39": 752, "\u0e15\u0e38": 753, "\u0e23\u0e39\u0e49": 754, "\u0e1e\u0e23\u0e2b\u0e21": 755, "\u0e01\u0e48\u0e2d\u0e19": 756, "\u0e44\u0e27\u0e49": 757, "\u0e40\u0e21\u0e19": 758, "\u0e01\u0e25\u0e49\u0e2d\u0e07": 759, "\u0e04\u0e27\u0e31\u0e19": 760, "\u0e2a\u0e37\u0e1a": 761, "\u0e34\u0e01\u0e32": 762, "\u0e16\u0e38\u0e07": 763, "\u0e23\u0e49\u0e2d\u0e22": 764, "\u0e04\u0e25": 765, "\u0e2a\u0e32\u0e21\u0e31\u0e0d": 766, "\u0e40\u0e1e\u0e25\u0e34": 767, "\u0e34\u0e27": 768, "\u0e21\u0e31\u0e19": 769, "\u0e35\u0e48\u0e22\u0e27": 770, "\u0e0b\u0e49\u0e2d": 771, "\u0e1b\u0e25\u0e48\u0e2d\u0e22": 772, "\u0e2a\u0e31\u0e19": 773, "\u0e23\u0e1a": 774, "\u0e41\u0e01\u0e49\u0e27": 775, "\u0e14\u0e07": 776, "\u0e42\u0e04\u0e23": 777, "\u0e31\u0e27": 778, "\u0e2a\u0e2d\u0e07": 779, "\u0e23\u0e19": 780, "\u0e40\u0e15\u0e49\u0e32": 781, "\u0e1e\u0e32\u0e19": 782, "\u0e41\u0e15\u0e48\u0e07": 783, "\u0e40\u0e0a\u0e37\u0e48\u0e2d": 784, "\u0e21\u0e2d": 785, "\u0e41\u0e21": 786, "\u0e41\u0e15\u0e48": 787, "\u0e41\u0e25\u0e30": 788, "\u0e20\u0e39": 789, "\u0e28\u0e31\u0e01": 790, "\u0e01\u0e34": 791, "\u0e31\u0e0a": 792, "\u0e41\u0e2b\u0e25": 793, "\u0e08\u0e23\u0e34": 794, "\u0e14\u0e2d\u0e07": 795, "\u0e04\u0e4c": 796, "\u0e1e\u0e2d": 797, "\u0e1a\u0e31\u0e15\u0e34": 798, "\u0e19\u0e01": 799, "\u0e1f\u0e15\u0e4c": 800, "\u0e07\u0e01\u0e4c": 801, "\u0e14\u0e4c": 802, "\u0e25\u0e49\u0e21": 803, "\u0e27\u0e31\u0e15\u0e34": 804, "\u0e48\u0e32\u0e22": 805, "\u0e04\u0e27": 806, "\u0e0a\u0e37\u0e48\u0e2d": 807, "\u0e15\u0e32\u0e21": 808, "\u0e23\u0e32\u0e21": 809, "\u0e40\u0e23\u0e35\u0e22\u0e19": 810, "\u0e1d\u0e32": 811, "\u0e01\u0e23\u0e30\u0e1a": 812, "\u0e2b\u0e21\u0e2d": 813, "\u0e40\u0e04\u0e23\u0e32\u0e30\u0e2b\u0e4c": 814, "\u0e23\u0e30\u0e2b\u0e27\u0e48\u0e32\u0e07": 815, "\u0e2a\u0e21\u0e32\u0e0a\u0e34\u0e01": 816, "\u0e1a\u0e31\u0e0d\u0e0d\u0e31\u0e15\u0e34": 817, "\u0e42\u0e1a\u0e23\u0e32\u0e13": 818, "\u0e1e\u0e19\u0e31\u0e01\u0e07\u0e32\u0e19": 819, "\u0e44\u0e2d\u0e23\u0e4c\u0e41\u0e25\u0e19\u0e14\u0e4c": 820, "\u0e2a\u0e27\u0e31\u0e2a\u0e14\u0e34": 821, "\u0e1e\u0e23\u0e49\u0e2d\u0e21": 822, "\u0e2b\u0e0d\u0e49\u0e32": 823, "\u0e2a\u0e07\u0e04\u0e23\u0e32\u0e21": 824, "\u0e2a\u0e31\u0e07\u0e2b\u0e32\u0e23": 825, "\u0e28\u0e36\u0e01\u0e29\u0e32": 826, "\u0e40\u0e17\u0e35\u0e48\u0e22\u0e07": 827, "\u0e1c\u0e36\u0e49\u0e07": 828, "\u0e40\u0e27\u0e2d\u0e23\u0e4c": 829, "\u0e2b\u0e34\u0e21\u0e30": 830, "\u0e2a\u0e27\u0e23\u0e23\u0e04\u0e4c": 831, "\u0e1c\u0e34\u0e27": 832, "\u0e27\u0e34\u0e01\u0e24\u0e15": 833, "\u0e1c\u0e25\u0e34\u0e15": 834, "\u0e17\u0e31\u0e49\u0e07": 835, "\u0e25\u0e27\u0e07": 836, "\u0e2b\u0e32\u0e22\u0e43\u0e08": 837, "\u0e40\u0e17\u0e35\u0e48\u0e22\u0e27": 838, "\u0e38\u0e49\u0e21": 839, "\u0e2d\u0e38\u0e14\u0e21": 840, "\u0e01\u0e32\u0e41\u0e1f": 841, "\u0e19\u0e49\u0e4d\u0e32\u0e41\u0e02\u0e47\u0e07": 842, "\u0e22\u0e34\u0e49\u0e21": 843, "\u0e40\u0e2b\u0e25\u0e47\u0e01": 844, "\u0e17\u0e31\u0e1e": 845, "\u0e1d\u0e31\u0e19": 846, "\u0e01\u0e23\u0e34\u0e22\u0e32": 847, "\u0e01\u0e35": 848, "\u0e1b\u0e0f\u0e34\u0e1a\u0e31\u0e15\u0e34": 849, "\u0e28\u0e34\u0e25\u0e1b": 850, "\u0e08\u0e49\u0e32\u0e07": 851, "\u0e40\u0e2b\u0e25\u0e37\u0e2d\u0e07": 852, "\u0e25\u0e49\u0e2d\u0e21": 853, "\u0e2b\u0e27\u0e32\u0e19": 854, "\u0e02\u0e19\u0e21\u0e1b\u0e31\u0e07": 855, "\u0e14\u0e34\u0e19\u0e2a\u0e2d": 856, "\u0e2b\u0e27\u0e31\u0e48\u0e19": 857, "\u0e41\u0e23\u0e48": 858, "\u0e01\u0e25\u0e2d\u0e07": 859, "\u0e0b\u0e31\u0e14": 860, "\u0e02\u0e36\u0e49\u0e19": 861, "\u0e0a\u0e35\u0e49": 862, "\u0e21\u0e32\u0e15\u0e23": 863, "\u0e01\u0e34\u0e08": 864, "\u0e17\u0e32\u0e22": 865, "\u0e01\u0e32\u0e28": 866, "\u0e16\u0e37\u0e2d": 867, "\u0e15\u0e48\u0e2d\u0e21": 868, "\u0e47\u0e14": 869, "\u0e15\u0e2d\u0e07": 870, "\u0e2b\u0e19\u0e2d\u0e19": 871, "\u0e0a\u0e35\u0e27": 872, "\u0e31\u0e15\u0e34": 873, "\u0e02\u0e35\u0e48": 874, "\u0e41\u0e08\u0e07": 875, "\u0e23\u0e32\u0e01": 876, "\u0e0b\u0e35\u0e48": 877, "\u0e04\u0e34\u0e14": 878, "\u0e34\u0e1a\u0e31\u0e15\u0e34": 879, "\u0e40\u0e1e": 880, "\u0e02\u0e49\u0e32": 881, "\u0e19\u0e34\u0e27": 882, "\u0e1b\u0e23\u0e30\u0e40": 883, "\u0e1b\u0e31\u0e14": 884, "\u0e14\u0e32\u0e1a": 885, "\u0e0a\u0e4d\u0e32": 886, "\u0e2a\u0e38\u0e01": 887, "\u0e41\u0e1c\u0e25": 888, "\u0e40\u0e16\u0e32": 889, "\u0e40\u0e19\u0e48\u0e32": 890, "\u0e2d\u0e31\u0e07": 891, "\u0e08\u0e2d": 892, "\u0e01\u0e4a\u0e32": 893, "\u0e22\u0e21": 894, "\u0e41\u0e02": 895, "\u0e2d\u0e39": 896, "\u0e22\u0e28": 897, "\u0e02\u0e32\u0e22": 898, "\u0e29\u0e32": 899, "\u0e40\u0e08\u0e35\u0e22": 900, "\u0e2a\u0e27\u0e22": 901, "\u0e40\u0e27\u0e35\u0e22": 902, "o": 903, "\u0e41\u0e17\u0e19": 904, "\u0e44\u0e2b": 905, "\u0e1a\u0e4a\u0e27": 906, "\u0e40\u0e0b\u0e32": 907, "\u0e01\u0e2d\u0e07": 908, "\u0e14\u0e2d\u0e23\u0e4c": 909, "\u0e19\u0e2d\u0e01": 910, "\u0e32\u0e22\u0e19": 911, "\u0e49\u0e21": 912, "\u0e2a\u0e35\u0e48\u0e40\u0e2b\u0e25\u0e35\u0e48\u0e22\u0e21": 913, "\u0e21\u0e32\u0e23": 914, "\u0e0a\u0e34\u0e0d": 915, "\u0e27\u0e35\u0e23": 916, "\u0e49\u0e2d": 917, "\u0e41\u0e19\u0e48\u0e19": 918, "\u0e32\u0e08\u0e32\u0e23": 919, "\u0e48\u0e2d\u0e07": 920, "\u0e0a\u0e31\u0e48\u0e27": 921, "\u0e1a\u0e32\u0e14": 922, "\u0e31\u0e2a": 923, "\u0e14\u0e32\u0e19": 924, "\u0e42\u0e1e": 925, "\u0e06\u0e48\u0e32": 926, "\u0e04\u0e07": 927, "\u0e04\u0e35": 928, "\u0e1e\u0e31\u0e07": 929, "\u0e41\u0e1a": 930, "\u0e01\u0e23\u0e30\u0e42": 931, "\u0e1e\u0e38": 932, "\u0e2d\u0e32\u0e22": 933, "\u0e2b\u0e19\u0e48\u0e2d": 934, "\u0e2a\u0e38\u0e02": 935, "\u0e16\u0e32\u0e21": 936, "\u0e2d\u0e31\u0e25": 937, "\u0e35\u0e1e": 938, "\u0e31\u0e13\u0e11\u0e4c": 939, "\u0e42\u0e0a": 940, "\u0e32\u0e14": 941, "\u0e1a\u0e39\u0e23": 942, "\u0e25\u0e49\u0e4d\u0e32": 943, "\u0e0a\u0e48\u0e2d\u0e07": 944, "\u0e23\u0e01": 945, "\u0e01\u0e38\u0e25": 946, "\u0e2a\u0e31\u0e19\u0e14\u0e32": 947, "\u0e40\u0e0a\u0e34\u0e07": 948, "\u0e01\u0e32\u0e23\u0e2d": 949, "\u0e38\u0e4a\u0e01": 950, "\u0e04\u0e23\u0e39": 951, "\u0e17\u0e31\u0e1a": 952, "\u0e08\u0e38\u0e14": 953, "\u0e27\u0e30": 954, "\u0e1c\u0e34\u0e14": 955, "\u0e15\u0e49\u0e21": 956, "\u0e40\u0e1a\u0e2d\u0e23\u0e4c": 957, "\u0e21\u0e2b": 958, "\u0e27\u0e2d": 959, "\u0e08\u0e31\u0e1a": 960, "\u0e0d\u0e32\u0e15\u0e34": 961, "\u0e2d\u0e23": 962, "\u0e25\u0e31\u0e48\u0e19": 963, "\u0e01\u0e4c": 964, "\u0e38\u0e49\u0e07": 965, "\u0e01\u0e04\u0e23": 966, "\u0e2b\u0e27": 967, "\u0e04\u0e2d\u0e21": 968, "\u0e1b\u0e31\u0e01": 969, "\u0e10": 970, "\u0e0a\u0e31\u0e49\u0e19": 971, "\u0e2d\u0e31": 972, "\u0e2d\u0e34\u0e2a\u0e23": 973, "\u0e20\u0e31": 974, "\u0e31\u0e15": 975, "\u0e04\u0e27\u0e32\u0e21\u0e40": 976, "\u0e44\u0e14": 977, "\u0e1c\u0e21": 978, "\u0e23\u0e32\u0e07": 979, "\u0e15\u0e25\u0e32\u0e14": 980, "\u0e41\u0e19\u0e48": 981, "\u0e23\u0e38\u0e01": 982, "\u0e25\u0e31\u0e17\u0e18\u0e34": 983, "\u0e25\u0e36\u0e01": 984, "\u0e43\u0e2b\u0e21": 985, "\u0e2d\u0e4d\u0e32": 986, "\u0e22\u0e35\u0e48\u0e2a\u0e34\u0e1a": 987, "\u0e21\u0e37\u0e14": 988, "\u0e25\u0e49\u0e19": 989, "\u0e40\u0e2b\u0e25\u0e37\u0e2d": 990, "\u0e40\u0e0b\u0e47\u0e19": 991, "\u0e08\u0e38": 992, "\u0e2a\u0e19\u0e32\u0e21": 993, "\u0e40\u0e2b": 994, "\u0e34\u0e49\u0e27": 995, "\u0254": 996, "\u0e02\u0e31\u0e14": 997, "\u0e01\u0e23\u0e21": 998, "\u0e37\u0e14": 999, "\u0e01\u0e31\u0e14": 1000, "\u0e2d\u0e22\u0e39\u0e48": 1001, "\u0e15\u0e2d": 1002, "\u0e34\u0e28": 1003, "\u0e07\u0e2d": 1004, "\u0e41\u0e14\u0e14": 1005, "\u0e2a\u0e31\u0e07": 1006, "\u0e04\u0e14\u0e35": 1007, "\u0e48\u0e32\u0e19": 1008, "\u0e2a\u0e34\u0e48\u0e07": 1009, "\u0e04\u0e21": 1010, "\u0e15\u0e34\u0e21": 1011, "\u0e16\u0e19": 1012, "\u0e48\u0e21": 1013, "\u0e04\u0e49\u0e19": 1014, "\u0e21\u0e39": 1015, "\u0e19\u0e34\u0e23": 1016, "\u0e06": 1017, "\u0e1a\u0e19": 1018, "\u0e28\u0e19\u0e4c": 1019, "\u0e0a\u0e31\u0e19": 1020, "\u0e2b\u0e19\u0e35": 1021, "\u0e2a\u0e21\u0e38\u0e17\u0e23": 1022, "\u0e23\u0e49\u0e2d\u0e07": 1023, "\u0e2d\u0e4d\u0e32\u0e19\u0e32\u0e08": 1024, "\u0e08\u0e34": 1025, "\u0e01\u0e23\u0e30\u0e14\u0e32\u0e29": 1026, "\u0e1b\u0e38": 1027, "\u0e40\u0e2b\u0e25\u0e35\u0e48\u0e22\u0e21": 1028, "\u0e28\u0e31\u0e1e\u0e17\u0e4c": 1029, "\u0e40\u0e1b\u0e23\u0e35\u0e22\u0e1a": 1030, "\u0e1b\u0e17\u0e38\u0e21": 1031, "\u0e40\u0e1c\u0e47\u0e14": 1032, "\u0e40\u0e1a\u0e35\u0e49\u0e22": 1033, "\u0e15\u0e23\u0e38\u0e29": 1034, "\u0e1e\u0e34\u0e08\u0e32\u0e23\u0e13": 1035, "\u0e21\u0e30\u0e21\u0e48\u0e27\u0e07": 1036, "\u0e01\u0e31\u0e19\u0e14\u0e32\u0e23": 1037, "\u0e1b\u0e31\u0e0d\u0e0d\u0e32": 1038, "\u0e2b\u0e19\u0e48\u0e27\u0e22": 1039, "\u0e23\u0e31\u0e15\u0e19": 1040, "\u0e23\u0e2b\u0e31\u0e2a": 1041, "\u0e15\u0e23\u0e23\u0e01": 1042, "\u0e24\u0e14\u0e39": 1043, "\u0e1b\u0e23\u0e30\u0e01\u0e32\u0e28": 1044, "\u0e42\u0e20\u0e04": 1045, "\u0e2b\u0e22\u0e38\u0e14": 1046, "\u0e40\u0e2a\u0e23\u0e34\u0e21": 1047, "\u0e28\u0e36\u0e01": 1048, "\u0e14\u0e2d\u0e01\u0e44\u0e21\u0e49": 1049, "\u0e04\u0e23\u0e35\u0e21": 1050, "\u0e40\u0e25\u0e47\u0e01": 1051, "\u0e40\u0e01\u0e47\u0e1a": 1052, "\u0e2b\u0e21\u0e39\u0e48": 1053, "\u0e23\u0e16\u0e44\u0e1f": 1054, "\u0e21\u0e38\u0e48\u0e07": 1055, "\u0e40\u0e2d\u0e47\u0e21": 1056, "\u0e23\u0e32\u0e0a\u0e32\u0e18\u0e34\u0e1b\u0e44\u0e15\u0e22": 1057, "\u0e40\u0e01\u0e48\u0e32": 1058, "\u0e2b\u0e25\u0e38\u0e21": 1059, "\u0e40\u0e27\u0e0a": 1060, "\u0e2d\u0e22\u0e48\u0e32\u0e07": 1061, "\u0e2b\u0e25\u0e2d\u0e14": 1062, "\u0e1d\u0e35": 1063, "\u0e23\u0e27\u0e21": 1064, "\u0e42\u0e1b\u0e07": 1065, "\u0e40\u0e1f\u0e2d\u0e23\u0e4c": 1066, "\u0e0a\u0e32\u0e19": 1067, "\u0e1f\u0e31\u0e01": 1068, "\u0e22\u0e34\u0e07": 1069, "\u0e17\u0e2b\u0e32\u0e23": 1070, "\u0e40\u0e01\u0e25\u0e37\u0e2d": 1071, "\u0e1d\u0e31\u0e07": 1072, "\u0e40\u0e02\u0e47\u0e21": 1073, "\u0e01\u0e38\u0e21\u0e32\u0e23": 1074, "\u0e02\u0e49\u0e32\u0e21": 1075, "\u0e44\u0e23\u0e49": 1076, "\u0e2d\u0e32\u0e01\u0e32\u0e23": 1077, "\u0e28\u0e1e": 1078, "\u0e1b\u0e31\u0e49\u0e19": 1079, "\u0e02\u0e4d\u0e32": 1080, "\u0e44\u0e01\u0e25": 1081, "\u0e40\u0e23\u0e32": 1082, "\u0e04\u0e25\u0e37\u0e48\u0e19": 1083, "\u0e44\u0e0a": 1084, "\u0e40\u0e1c\u0e22": 1085, "\u0e2a\u0e38\u0e21": 1086, "\u0e1b\u0e23\u0e30\u0e27\u0e31\u0e15\u0e34": 1087, "\u0e28\u0e35\u0e25": 1088, "\u0e1e\u0e22\u0e32\u0e19": 1089, "\u0e01\u0e34\u0e42\u0e25": 1090, "\u0e1a\u0e01": 1091, "\u0e16\u0e35\u0e1a": 1092, "\u0e1e\u0e34\u0e29": 1093, "\u0e22\u0e32\u0e07": 1094, "\u0e40\u0e2d\u0e32": 1095, "\u0e40\u0e1b\u0e34\u0e14": 1096, "\u0e1b\u0e39\u0e19": 1097, "\u0e42\u0e28": 1098, "\u0e17\u0e30": 1099, "\u0e40\u0e08\u0e19": 1100, "\u0e2d\u0e31\u0e0d": 1101, "\u0e42\u0e1e\u0e23": 1102, "\u0e18\u0e32\u0e23": 1103, "\u0e0d\u0e32\u0e13": 1104, "\u0e0a\u0e38\u0e21": 1105, "\u0e01\u0e27\u0e32\u0e07": 1106, "\u0e40\u0e2d\u0e25": 1107, "\u0e01\u0e32\u0e01": 1108, "\u0e41\u0e25\u0e07": 1109, "\u0e1c\u0e31\u0e01": 1110, "\u0e39\u0e49": 1111, "\u0e42\u0e01\u0e07": 1112, "\u0e01\u0e29\u0e32": 1113, "\u0e08\u0e32\u0e23": 1114, "\u0e35\u0e48\u0e22\u0e07": 1115, "\u0e1a\u0e49\u0e32": 1116, "\u0e40\u0e16": 1117, "\u0e1a\u0e23\u0e23\u0e1e": 1118, "\u0e2b\u0e25\u0e31\u0e1a": 1119, "\u0e04\u0e38": 1120, "\u0e22\u0e30": 1121, "\u0e01\u0e38\u0e0f": 1122, "\u0e42\u0e01\u0e23": 1123, "\u0e42\u0e1b\u0e23": 1124, "\u0e19\u0e31\u0e48\u0e07": 1125, "\u0e31\u0e08\u0e09": 1126, "\u0e40\u0e15\u0e49\u0e19": 1127, "\u0e1b\u0e23\u0e30\u0e01\u0e31\u0e19": 1128, "\u0e0a\u0e49\u0e32\u0e07": 1129, "\u0e42\u0e04\u0e21": 1130, "\u0e04\u0e49\u0e32": 1131, "\u0e1a\u0e34": 1132, "\u0e01\u0e23\u0e35": 1133, "\u0e0a\u0e39\u0e49": 1134, "\u0e04\u0e38\u0e49\u0e21": 1135, "\u0e2a\u0e15": 1136, "\u0e21\u0e39\u0e25": 1137, "\u0e40\u0e1f\u0e37\u0e2d": 1138, "\u0e23\u0e32\u0e14": 1139, "\u0e41\u0e1b\u0e25\u0e07": 1140, "u": 1141, "\u0e1a\u0e23\u0e21": 1142, "\u0e17\u0e49\u0e2d\u0e07": 1143, "\u0e40\u0e2b\u0e22": 1144, "\u0e2b\u0e25\u0e48\u0e2d": 1145, "\u0e44\u0e25": 1146, "\u0e36\u0e48\u0e07": 1147, "\u0e22\u0e2d\u0e21": 1148, "\u0e1b\u0e35\u0e01": 1149, "\u0e21\u0e23": 1150, "\u0e2d\u0e38\u0e17": 1151, "\u0e22\u0e35": 1152, "\u0e48\u0e27\u0e19": 1153, "\u0e2d\u0e34\u0e19": 1154, "\u0e35\u0e14": 1155, "\u0e2a\u0e31\u0e1a": 1156, "\u0e15\u0e48\u0e4d\u0e32": 1157, "\u0e42\u0e2b\u0e25": 1158, "\u0e36\u0e49\u0e07": 1159, "\u0e40\u0e1a\u0e19": 1160, "\u0e32\u0e20\u0e34": 1161, "\u0e23\u0e23\u0e29": 1162, "\u0e2a\u0e37\u0e48\u0e2d": 1163, "\u0e23\u0e38\u0e19": 1164, "\u0e04\u0e30": 1165, "\u0e44\u0e2b\u0e21": 1166, "\u0e01\u0e35\u0e49": 1167, "\u0e18\u0e35": 1168, "\u0e0b\u0e31": 1169, "\u0e32\u0e04\u0e21": 1170, "\u0e25\u0e4c": 1171, "\u0e2d\u0e32\u0e0a": 1172, "\u0e2b\u0e27\u0e31\u0e07": 1173, "\u0e40\u0e17\u0e48\u0e32": 1174, "\u0e2b\u0e19\u0e31\u0e07": 1175, "\u0e21\u0e32\u0e13": 1176, "\u0e32\u0e01": 1177, "\u0e40\u0e01\u0e25": 1178, "\u0e16\u0e32": 1179, "\u0e31\u0e0d\u0e0d": 1180, "\u0e40\u0e0a\u0e34": 1181, "\u0e25\u0e31\u0e14": 1182, "\u0e42\u0e0b": 1183, "\u0e1b\u0e23\u0e30\u0e17": 1184, "\u0e1f\u0e35": 1185, "\u0e17\u0e23\u0e32": 1186, "\u0e2a\u0e35\u0e48": 1187, "\u0e42\u0e04\u0e23\u0e40": 1188, "\u0e2d\u0e23\u0e34": 1189, "\u0e40\u0e17\u0e19": 1190, "\u0e49\u0e32\u0e27": 1191, "\u0e31\u0e49\u0e07": 1192, "\u0e41\u0e22\u0e49": 1193, "\u0e41\u0e04\u0e25": 1194, "\u0e15\u0e31\u0e19": 1195, "\u0e2e\u0e31": 1196, "\u0e38\u0e21": 1197, "\u0e23\u0e32\u0e1a": 1198, "\u0e19\u0e34\u0e04": 1199, "\u0e49\u0e27\u0e07": 1200, "\u0e14\u0e31\u0e07": 1201, "\u0e40\u0e14\u0e37\u0e2d\u0e19": 1202, "\u0e34\u0e48\u0e19": 1203, "\u0e25\u0e31\u0e21": 1204, "\u0e22\u0e19\u0e15\u0e4c": 1205, "\u0e34\u0e23\u0e4c\u0e1f": 1206, "\u0e0b\u0e34\u0e19": 1207, "\u0e2d\u0e31\u0e1a": 1208, "\u0e17\u0e28": 1209, "\u0e21\u0e34\u0e19": 1210, "\u0e15\u0e39": 1211, "\u0e29": 1212, "\u0e1e\u0e25\u0e32": 1213, "\u0e44\u0e1e": 1214, "\u0e1d\u0e32\u0e01": 1215, "\u0e14\u0e49\u0e32\u0e19": 1216, "\u0e19\u0e31\u0e22": 1217, "\u0e2d\u0e32\u0e0a\u0e0d\u0e32": 1218, "\u0e40\u0e17\u0e04": 1219, "\u0e19\u0e23": 1220, "\u0e23\u0e34\u0e01": 1221, "\u0e08\u0e32\u0e01": 1222, "\u0e27\u0e34\u0e17\u0e22\u0e32\u0e01\u0e32\u0e23": 1223, "\u0e37\u0e19": 1224, "\u0e31\u0e19\u0e15\u0e4c": 1225, "\u0e17\u0e1a": 1226, "\u0e34\u0e48\u0e21": 1227, "\u0e27\u0e21": 1228, "\u0e09\u0e01": 1229, "\u0e25\u0e32\u0e07": 1230, "\u0e40\u0e01\u0e34": 1231, "\u0e37\u0e48\u0e19": 1232, "\u0e25\u0e32\u0e14": 1233, "\u0e34\u0e01": 1234, "\u0e41\u0e01\u0e23": 1235, "\u0e2a\u0e32\u0e21\u0e2a\u0e34\u0e1a": 1236, "\u0e15\u0e35\u0e19": 1237, "\u0e43\u0e2a\u0e48": 1238, "\u0e02\u0e22": 1239, "\u0e0a\u0e34": 1240, "\u0e01\u0e1a": 1241, "\u0e21\u0e31\u0e01": 1242, "\u0e37\u0e2d\u0e01": 1243, "\u0e19\u0e2d\u0e23\u0e4c\u0e40": 1244, "\u0e49\u0e32\u0e22": 1245, "\u0e35\u0e22\u0e07": 1246, "\u0e35\u0e1a": 1247, "\u0e1a\u0e32\u0e22": 1248, "\u0e2a\u0e15\u0e34\u0e01": 1249, "\u0e40\u0e08\u0e23\u0e34\u0e0d": 1250, "\u0e01\u0e07": 1251, "\u0e1e\u0e23\u0e23": 1252, "\u0e15\u0e32\u0e23\u0e4c": 1253, "\u0e22\u0e01": 1254, "\u0e19\u0e31\u0e14": 1255, "\u0e19\u0e34\u0e1e": 1256, "\u0e04\u0e23\u0e34\u0e2a\u0e15\u0e4c": 1257, "\u0e41\u0e1c\u0e48": 1258, "\u0e25\u0e32\u0e19": 1259, "\u0e40\u0e1a\u0e34\u0e25": 1260, "\u0e34\u0e23\u0e4c\u0e19": 1261, "\u0e04\u0e27\u0e32\u0e21\u0e40\u0e1b\u0e47\u0e19": 1262, "\u0e41\u0e01\u0e25\u0e49": 1263, "\u0e2e\u0e2d": 1264, "\u0e2d\u0e32\u0e23": 1265, "\u0e40\u0e17\u0e27": 1266, "\u0e01\u0e25\u0e31\u0e1a": 1267, "\u0e0a\u0e34\u0e07": 1268, "\u0e0a\u0e25": 1269, "\u0e01\u0e25\u0e32": 1270, "\u0e19\u0e14\u0e4c": 1271, "\u0e22\u0e34\u0e19": 1272, "\u0e41\u0e15": 1273, "\u0e0a\u0e30": 1274, "\u0e19\u0e31": 1275, "\u0e17\u0e39": 1276, "\u0e34\u0e48\u0e27": 1277, "\u0e40\u0e04\u0e23": 1278, "\u0e23\u0e31\u0e2a": 1279, "\u0e27\u0e48\u0e32\u0e07": 1280, "\u0e17\u0e48\u0e2d": 1281, "\u0e08\u0e31\u0e01": 1282, "\u0e25\u0e49\u0e2d": 1283, "\u0e34\u0e19\u0e17\u0e23\u0e4c": 1284, "\u0e27\u0e1f": 1285, "\u0e1c\u0e39\u0e01": 1286, "\u0e40\u0e19\u0e47": 1287, "\u0e1b\u0e49\u0e2d\u0e07": 1288, "\u0e2a\u0e32\u0e18\u0e32\u0e23\u0e13": 1289, "\u0e1d\u0e36\u0e01": 1290, "\u0e35\u0e22": 1291, "\u0e40\u0e01\u0e23\u0e15\u0e1a\u0e23\u0e34\u0e40\u0e15\u0e19": 1292, "\u0e01\u0e38\u0e0d\u0e41\u0e08": 1293, "\u0e1b\u0e23\u0e30\u0e14\u0e34\u0e29\u0e10": 1294, "\u0e01\u0e32\u0e0d\u0e08\u0e19": 1295, "\u0e2d\u0e32\u0e23\u0e21\u0e13\u0e4c": 1296, "\u0e40\u0e01\u0e2a\u0e23\u0e15\u0e31\u0e27": 1297, "\u0e40\u0e1a\u0e0d\u0e08": 1298, "\u0e40\u0e2a\u0e23\u0e47\u0e08": 1299, "\u0e40\u0e23\u0e47\u0e27": 1300, "\u0e40\u0e04\u0e25\u0e37\u0e48\u0e2d\u0e19": 1301, "\u0e40\u0e2b\u0e19\u0e47\u0e1a": 1302, "\u0e2d\u0e40\u0e19\u0e01": 1303, "\u0e2d\u0e4d\u0e32\u0e19\u0e27\u0e22": 1304, "\u0e40\u0e19\u0e37\u0e48\u0e2d\u0e07": 1305, "\u0e01\u0e23\u0e30\u0e15\u0e48\u0e32\u0e22": 1306, "\u0e1b\u0e23\u0e30\u0e01\u0e2d\u0e1a": 1307, "\u0e15\u0e30\u0e27\u0e31\u0e19\u0e15\u0e01": 1308, "\u0e2a\u0e2b\u0e23\u0e32\u0e0a\u0e2d\u0e32\u0e13\u0e32\u0e08\u0e31\u0e01\u0e23": 1309, "\u0e2d\u0e32\u0e13\u0e32": 1310, "\u0e2d\u0e31\u0e15\u0e42\u0e19\u0e21": 1311, "\u0e15\u0e49\u0e32\u0e19": 1312, "\u0e2b\u0e21\u0e34\u0e48\u0e19": 1313, "\u0e21\u0e39\u0e25\u0e10\u0e32\u0e19": 1314, "\u0e2a\u0e21\u0e20\u0e32\u0e23": 1315, "\u0e20\u0e39\u0e40\u0e02\u0e32": 1316, "\u0e40\u0e2a\u0e49\u0e19\u0e40\u0e25\u0e37\u0e2d\u0e14": 1317, "\u0e14\u0e34\u0e19\u0e41\u0e14\u0e19": 1318, "\u0e2d\u0e32\u0e27\u0e38\u0e18": 1319, "\u0e2d\u0e38\u0e1a\u0e31\u0e15\u0e34": 1320, "\u0e17\u0e23\u0e31\u0e2a\u0e15": 1321, "\u0e0a\u0e19\u0e21\u0e4c": 1322, "\u0e28\u0e31\u0e01\u0e14\u0e34\u0e4c": 1323, "\u0e41\u0e1c\u0e19": 1324, "\u0e42\u0e04\u0e25\u0e19": 1325, "\u0e2b\u0e21\u0e49\u0e2d": 1326, "\u0e40\u0e1e\u0e0a\u0e23": 1327, "\u0e40\u0e01\u0e35\u0e48\u0e22\u0e27": 1328, "\u0e04\u0e48\u0e4d\u0e32": 1329, "\u0e40\u0e01\u0e25\u0e35\u0e22\u0e14": 1330, "\u0e14\u0e49\u0e27\u0e22": 1331, "\u0e40\u0e0a\u0e47\u0e01": 1332, "\u0e43\u0e1a\u0e49": 1333, "\u0e2a\u0e31\u0e07\u0e04\u0e21": 1334, "\u0e16\u0e36\u0e07": 1335, "\u0e02\u0e48\u0e32\u0e27": 1336, "\u0e43\u0e1a\u0e44\u0e21\u0e49": 1337, "\u0e0a\u0e38\u0e14": 1338, "\u0e16\u0e48\u0e32\u0e22": 1339, "\u0e2a\u0e21\u0e13": 1340, "\u0e1e\u0e23\u0e23\u0e13": 1341, "\u0e2b\u0e25\u0e31\u0e07\u0e04\u0e32": 1342, "\u0e0b\u0e49\u0e4d\u0e32": 1343, "\u0e2a\u0e31\u0e07\u0e02": 1344, "\u0e02\u0e27\u0e31\u0e0d": 1345, "\u0e04\u0e23\u0e36\u0e48\u0e07": 1346, "\u0e40\u0e2a\u0e23\u0e35": 1347, "\u0e2b\u0e35\u0e1a": 1348, "\u0e1b\u0e25\u0e48\u0e2d\u0e07": 1349, "\u0e40\u0e25\u0e37\u0e48\u0e2d\u0e19": 1350, "\u0e40\u0e1b\u0e47\u0e14": 1351, "\u0e40\u0e01\u0e32\u0e30": 1352, "\u0e04\u0e2d\u0e23\u0e4c\u0e19": 1353, "\u0e40\u0e2d\u0e37\u0e49\u0e2d": 1354, "\u0e40\u0e04\u0e23\u0e37\u0e48\u0e2d\u0e07\u0e2b\u0e21\u0e32\u0e22": 1355, "\u0e40\u0e17\u0e35\u0e22\u0e1a": 1356, "\u0e42\u0e1b\u0e23\u0e14": 1357, "\u0e1a\u0e38\u0e1e": 1358, "\u0e1c\u0e48\u0e32\u0e19": 1359, "\u0e40\u0e07": 1360, "\u0e1b\u0e31\u0e48\u0e19": 1361, "\u0e21\u0e34\u0e27\u0e19\u0e34": 1362, "\u0e40\u0e1e\u0e37\u0e48\u0e2d\u0e19": 1363, "\u0e01\u0e32\u0e23\u0e04\u0e49\u0e32": 1364, "\u0e2b\u0e21\u0e48\u0e2d\u0e21": 1365, "\u0e01\u0e24\u0e29": 1366, "\u0e17\u0e49\u0e32\u0e22": 1367, "\u0e1e\u0e25\u0e2d\u0e22": 1368, "\u0e41\u0e19\u0e30": 1369, "\u0e1b\u0e32\u0e01\u0e01\u0e32": 1370, "\u0e04\u0e49\u0e2d\u0e19": 1371, "\u0e44\u0e25\u0e48": 1372, "\u0e1b\u0e23\u0e30\u0e27\u0e31\u0e15\u0e34\u0e01\u0e32\u0e23": 1373, "\u0e14\u0e31\u0e0a": 1374, "\u0e40\u0e27\u0e23": 1375, "\u0e2a\u0e21\u0e23\u0e2a": 1376, "\u0e16\u0e27\u0e32\u0e22": 1377, "\u0e01\u0e36\u0e48\u0e07": 1378, "\u0e08\u0e35\u0e4a": 1379, "\u0e1a\u0e23\u0e21\u0e23\u0e32\u0e0a\u0e32": 1380, "\u0e04\u0e15\u0e34": 1381, "\u0e21\u0e31\u0e2a\u0e01\u0e31": 1382, "\u0e04\u0e27\u0e32\u0e21\u0e19\u0e48\u0e32": 1383, "\u0e2d\u0e20\u0e31\u0e22": 1384, "\u0e31\u0e21": 1385, "\u0e40\u0e2b\u0e47\u0e14": 1386, "\u0e04\u0e27\u0e32\u0e22": 1387, "\u0e01\u0e49\u0e32\u0e27": 1388, "\u0e1f\u0e2d\u0e07": 1389, "\u0e27\u0e23\u0e23\u0e13": 1390, "\u0e40\u0e27\u0e35\u0e22\u0e19": 1391, "\u0e01\u0e25\u0e31\u0e27": 1392, "\u0e21\u0e13\u0e35": 1393, "\u0e41\u0e02\u0e19": 1394, "\u0e1a\u0e34\u0e01": 1395, "\u0e1e\u0e23\u0e30\u0e40\u0e08\u0e49\u0e32": 1396, "\u0e01\u0e23\u0e30\u0e17\u0e4d\u0e32": 1397, "\u0e2a\u0e1b\u0e2d\u0e23\u0e4c": 1398, "\u0e16\u0e2d\u0e14": 1399, "\u0e19\u0e34\u0e49\u0e27": 1400, "\u0e40\u0e0a\u0e48\u0e32": 1401, "\u0e27\u0e48\u0e32\u0e22": 1402, "\u0e01\u0e34\u0e48\u0e07": 1403, "\u0e22\u0e36\u0e14": 1404, "\u0e19\u0e38\u0e01\u0e23\u0e21": 1405, "\u0e41\u0e14\u0e19": 1406, "\u0e40\u0e1a\u0e25": 1407, "\u0e2a\u0e2d\u0e14": 1408, "\u0e01\u0e25\u0e38\u0e48\u0e21": 1409, "\u0e01\u0e23\u0e38\u0e07": 1410, "\u0e2a\u0e4d\u0e32\u0e40\u0e23\u0e47\u0e08": 1411, "\u0e21\u0e42\u0e19": 1412, "\u0e25\u0e34\u0e14": 1413, "\u0e25\u0e1a": 1414, "\u0e01\u0e32\u0e23\u0e4c": 1415, "\u0e2d\u0e22\u0e32\u0e01": 1416, "\u0e41\u0e04\u0e19": 1417, "\u0e2b\u0e19\u0e31\u0e01": 1418, "\u0e1b\u0e34\u0e49\u0e07": 1419, "\u0e21\u0e32\u0e2a": 1420, "\u0e19\u0e24": 1421, "\u0e31\u0e25\u0e40\u0e25\u0e15": 1422, "\u0e1e\u0e2a\u0e01": 1423, "\u0e23\u0e14\u0e01": 1424, "\u0e21\u0e38\u0e02": 1425, "\u0e34\u0e25": 1426, "\u0e15\u0e32\u0e25": 1427, "\u0e1b\u0e23\u0e31\u0e1a": 1428, "\u0e40\u0e1a\u0e32": 1429, "\u0e40\u0e17\u0e28\u0e19\u0e4c": 1430, "\u0e40\u0e21\u0e18": 1431, "\u0e1a\u0e38": 1432, "\u0e2b\u0e48\u0e21": 1433, "\u0e42\u0e2d\u0e19": 1434, "\u0e1f\u0e2d\u0e23\u0e4c": 1435, "\u0e19\u0e31\u0e01\u0e01\u0e32\u0e23": 1436, "\u0e41\u0e02\u0e01": 1437, "\u0e41\u0e21\u0e07": 1438, "\u0e1b\u0e31\u0e2a\u0e2a": 1439, "\u0e42\u0e2a\u0e21": 1440, "\u0e1a\u0e38\u0e01": 1441, "\u0e1e\u0e34\u0e1e\u0e32": 1442, "\u0e41\u0e16\u0e27": 1443, "\u0e04\u0e49\u0e32\u0e07": 1444, "\u0e40\u0e14\u0e34\u0e19": 1445, "\u0e22\u0e48\u0e2d\u0e22": 1446, "\u0e01\u0e38\u0e21": 1447, "\u0e1f\u0e39": 1448, "\u0e42\u0e21\u0e06": 1449, "\u0e08\u0e31\u0e19\u0e17\u0e23": 1450, "\u0e01\u0e31\u0e01": 1451, "\u0e2a\u0e39\u0e0d": 1452, "\u0e17\u0e48\u0e2d\u0e07": 1453, "\u0e1b\u0e31\u0e4a": 1454, "\u0e02\u0e32\u0e14": 1455, "\u0e38\u0e1b\u0e23\u0e32": 1456, "\u0e17\u0e31\u0e48\u0e27": 1457, "\u0e01\u0e32\u0e23\u0e23\u0e31\u0e1a": 1458, "\u0e41\u0e2b\u0e07": 1459, "\u0e41\u0e21\u0e25\u0e07": 1460, "\u0e1e\u0e08\u0e19": 1461, "\u0e41\u0e27": 1462, "\u0e02\u0e25\u0e32": 1463, "\u0e0b\u0e36": 1464, "\u0e2a\u0e39\u0e07": 1465, "\u0e23\u0e34\u0e14": 1466, "\u0e01\u0e25\u0e49\u0e27\u0e22": 1467, "\u0e1c\u0e31\u0e27": 1468, "\u0e21\u0e39\u0e01": 1469, "\u0e40\u0e04\u0e47": 1470, "\u0e2d\u0e32\u0e23\u0e4c": 1471, "\u0e41\u0e27\u0e14": 1472, "\u0e2b\u0e48\u0e32": 1473, "\u0e41\u0e1e\u0e23\u0e48": 1474, "\u0e1a\u0e23": 1475, "\u0e22\u0e32\u0e22": 1476, "\u0e01\u0e32\u0e23\u0e1b\u0e23\u0e30": 1477, "\u0e2d\u0e38\u0e14": 1478, "\u0e1a\u0e27": 1479, "\u0e2d\u0e32\u0e1a": 1480, "\u0e44\u0e1e\u0e23": 1481, "\u0e21\u0e34\u0e2a": 1482, "\u0e23\u0e23\u0e16": 1483, "\u0e19\u0e2a\u0e4c": 1484, "\u0e41\u0e23\u0e49": 1485, "\u0e2b\u0e48\u0e27\u0e07": 1486, "\u0e19\u0e34\u0e15\u0e34": 1487, "\u0e43\u0e1a\u0e23\u0e31\u0e1a": 1488, "\u0e2b\u0e21\u0e35": 1489, "\u0e42\u0e23\u0e2b\u0e34": 1490, "\u0e2d\u0e31\u0e19": 1491, "\u0e1c\u0e39\u0e49\u0e2b\u0e0d\u0e34\u0e07": 1492, "\u0e40\u0e1e\u0e32\u0e30": 1493, "\u0e01\u0e32\u0e23\u0e27\u0e34": 1494, "\u0e27\u0e34\u0e2a": 1495, "\u0e1a\u0e34\u0e14": 1496, "\u0e04\u0e27\u0e49\u0e32": 1497, "\u0e40\u0e1c\u0e32": 1498, "\u0e0b\u0e37\u0e49\u0e2d": 1499, "\u0e48\u0e27\u0e22": 1500, "\u0e40\u0e25\u0e48\u0e32": 1501, "\u0e01\u0e27": 1502, "\u0e2a\u0e30\u0e40": 1503, "\u0e40\u0e23\u0e32\u0e30": 1504, "\u0e14\u0e34": 1505, "\u0e1e\u0e07": 1506, "\u0e44\u0e01": 1507, "\u0e19\u0e17": 1508, "\u0e15\u0e34\u0e01": 1509, "\u0e34\u0e40\u0e19\u0e35\u0e22": 1510, "\u0e44\u0e02": 1511, "\u0e27\u0e34\u0e2a\u0e32": 1512, "\u0e1e\u0e23\u0e34": 1513, "\u0e01\u0e32\u0e23\u0e2a": 1514, "\u0e41\u0e01\u0e19": 1515, "\u0e30\u0e25\u0e32\u0e22": 1516, "\u0e23\u0e2d\u0e1a": 1517, "\u0e19\u0e31\u0e01\u0e27\u0e34": 1518, "\u0e25\u0e35\u0e48\u0e22": 1519, "\u0e41\u0e04\u0e23": 1520, "\u0e17\u0e34": 1521, "\u0e04\u0e27\u0e32\u0e21\u0e2d": 1522, "\u0e40\u0e2b\u0e35\u0e49\u0e22\u0e21": 1523, "\u0e32\u0e01\u0e23": 1524, "\u0e1a\u0e2d\u0e01": 1525, "\u0e21\u0e31\u0e07": 1526, "\u0e1a\u0e23\u0e23": 1527, "\u0e44\u0e2d\u0e28": 1528, "\u0e23\u0e31\u0e21": 1529, "\u0e04\u0e23\u0e32": 1530, "\u0e01\u0e32\u0e23\u0e25\u0e07": 1531, "\u0e41\u0e1e\u0e23": 1532, "\u0e42\u0e22\u0e19": 1533, "\u0e2d\u0e18\u0e34": 1534, "\u0e08\u0e19": 1535, "\u0e32\u0e23\u0e1e": 1536, "\u0e38\u0e49\u0e19": 1537, "\u0e19\u0e34\u0e25": 1538, "\u0e41\u0e23": 1539, "\u0e23\u0e48\u0e2d\u0e07": 1540, "\u0e40\u0e19\u0e1b": 1541, "\u0e49\u0e2d\u0e07": 1542, "\u0e01\u0e48\u0e2d": 1543, "\u0e20\u0e31\u0e13\u0e11\u0e4c": 1544, "\u0e32\u0e15\u0e38": 1545, "\u0e13\u0e32": 1546, "\u0e15\u0e34\u0e48\u0e07": 1547, "\u0e0a\u0e01": 1548, "\u0e21\u0e32\u0e14": 1549, "\u0e17\u0e31\u0e19": 1550, "\u0e2a\u0e23": 1551, "\u0e25\u0e32\u0e27": 1552, "\u0e32\u0e1a": 1553, "\u0e27\u0e34\u0e14": 1554, "\u0e40\u0e1b\u0e2d\u0e23\u0e4c": 1555, "\u0e02\u0e27": 1556, "\u0e23\u0e34\u0e49\u0e27": 1557, "\u0e17\u0e34\u0e1e": 1558, "\u0e40\u0e0a\u0e37\u0e48\u0e2d\u0e21": 1559, "\u0e23\u0e30\u0e40\u0e2b": 1560, "\u0e18\u0e34": 1561, "\u0e23\u0e49\u0e32\u0e27": 1562, "\u0e27\u0e4c": 1563, "\u0e2d\u0e31\u0e14": 1564, "\u0e41\u0e17\u0e25": 1565, "\u0e1e\u0e22\u0e32": 1566, "\u0e35\u0e22\u0e4c": 1567, "\u0e42\u0e21\u0e48": 1568, "\u0e23\u0e38\u0e48\u0e19": 1569, "\u0e41\u0e01\u0e48": 1570, "\u0e2d\u0e31\u0e01": 1571, "\u0e40\u0e1e\u0e23\u0e32": 1572, "\u0e2e\u0e32": 1573, "\u0e21\u0e2d\u0e19": 1574, "\u0e40\u0e08\u0e47": 1575, "\u0e25\u0e49\u0e32": 1576, "\u0e40\u0e17\u0e2d\u0e23\u0e4c": 1577, "\u0e01\u0e27\u0e35": 1578, "\u0e40\u0e08\u0e2d\u0e23": 1579, "\u0e1a\u0e32\u0e15": 1580, "\u0e01\u0e32\u0e21": 1581, "\u0e20\u0e39\u0e15": 1582, "\u0e34\u0e16\u0e35": 1583, "\u0e2d\u0e32\u0e14": 1584, "\u0e04\u0e23\u0e34\u0e2a\u0e15": 1585, "\u0e15\u0e23\u0e35": 1586, "\u0e1e\u0e2d\u0e14": 1587, "\u0e04\u0e32\u0e1a": 1588, "\u0e22\u0e31\u0e07": 1589, "\u0e27\u0e34\u0e19": 1590, "\u0e2a\u0e27\u0e32": 1591, "\u0e1b\u0e23\u0e32\u0e01": 1592, "\u0e1e\u0e31": 1593, "\u0e2a\u0e40\u0e15\u0e2d\u0e23\u0e4c": 1594, "\u0e40\u0e1e\u0e25": 1595, "\u0e01\u0e32\u0e23\u0e01": 1596, "\u0e21\u0e1b\u0e4c": 1597, "\u0e01\u0e23\u0e30\u0e08": 1598, "\u0e41\u0e2b\u0e48\u0e07": 1599, "\u0e23\u0e35\u0e21": 1600, "\u0e41\u0e17\u0e49": 1601, "\u0e34\u0e28\u0e32": 1602, "\u0e1c\u0e39\u0e49\u0e40": 1603, "\u0e14\u0e32\u0e27\u0e40\u0e04\u0e23\u0e32\u0e30\u0e2b\u0e4c": 1604, "\u0e22\u0e38": 1605, "\u0e21\u0e32\u0e15\u0e38": 1606, "\u0e01\u0e23\u0e30\u0e40": 1607, "\u0e23\u0e27\u0e07": 1608, "\u0e2b\u0e21\u0e14": 1609, "\u0e08\u0e23\u0e23\u0e22": 1610, "\u0e2d\u0e31\u0e15": 1611, "\u0e40\u0e19\u0e22": 1612, "\u0e08\u0e21": 1613, "\u0e01\u0e31": 1614, "\u0e1e\u0e23\u0e30\u0e1a\u0e32": 1615, "\u0e16\u0e48": 1616, "\u0e22\u0e2d": 1617, "\u0e38\u0e01": 1618, "\u0e32\u0e23\u0e16": 1619, "\u0e21\u0e2b\u0e31": 1620, "\u0e2a\u0e35\u0e48\u0e2a\u0e34\u0e1a": 1621, "\u0e01\u0e39": 1622, "\u0e23\u0e38": 1623, "\u0e19\u0e2d\u0e23\u0e4c": 1624, "\u0e42\u0e27": 1625, "\u0e40\u0e20": 1626, "\u0e22\u0e4d\u0e32": 1627, "\u0e01\u0e49\u0e19": 1628, "\u0e41\u0e21\u0e19": 1629, "e": 1630, "\u0e40\u0e04\u0e49": 1631, "\u0e40\u0e17\u0e35\u0e22": 1632, "\u0e0b\u0e31\u0e01": 1633, "\u0e21\u0e31\u0e14": 1634, "\u0e27\u0e48": 1635, "\u0e44\u0e16": 1636, "\u0e01\u0e23\u0e30\u0e2a\u0e32": 1637, "\u0e1c\u0e07": 1638, "\u0e32\u0e23\u0e4c": 1639, "\u0e19\u0e18": 1640, "\u0e01\u0e30\u0e25\u0e32": 1641, "\u0e42\u0e01\u0e19": 1642, "\u0e42\u0e25": 1643, "\u0e2a\u0e32\u0e19": 1644, "\u0e2a\u0e38\u0e23": 1645, "\u0e1b\u0e32\u0e19": 1646, "\u0e1b\u0e25\u0e2d\u0e01": 1647, "\u0e44\u0e19": 1648, "\u0e41\u0e2e\u0e21": 1649, "\u0e40\u0e25\u0e2a": 1650, "\u0e35\u0e22\u0e14": 1651, "\u0e21\u0e2d\u0e21": 1652, "\u0e2a\u0e01": 1653, "\u0e44\u0e15": 1654, "\u0e40\u0e02\u0e49": 1655, "\u0e23\u0e30\u0e40\u0e1a\u0e35\u0e22": 1656, "\u0e16\u0e2d\u0e19": 1657, "\u0e47\u0e2d\u0e01": 1658, "\u0e23\u0e48\u0e32": 1659, "\u0e23\u0e2d\u0e14": 1660, "\u0e2a\u0e31\u0e15\u0e22": 1661, "\u0e1e\u0e22": 1662, "\u0e1a\u0e35": 1663, "\u0e21\u0e19": 1664, "\u0e41\u0e2b\u0e27": 1665, "\u0e35\u0e49": 1666, "\u0e38\u0e25": 1667, "\u0e40\u0e2a\u0e35\u0e22\u0e14": 1668, "\u0e1e\u0e30": 1669, "\u0e2d\u0e32\u0e08": 1670, "\u0e1b\u0e01": 1671, "\u0e07\u0e01": 1672, "\u0e42\u0e2d\u0e40": 1673, "\u0e04\u0e32\u0e22": 1674, "\u0e15\u0e31\u0e1a": 1675, "\u0e02\u0e37\u0e19": 1676, "\u0e40\u0e1a\u0e23": 1677, "\u0e2d\u0e07\u0e42\u0e01": 1678, "\u0e44\u0e1a": 1679, "\u0e2a\u0e31\u0e1b": 1680, "\u0e13\u0e11\u0e4c": 1681, "\u0e1b\u0e23\u0e30\u0e2a\u0e32\u0e19": 1682, "\u0e01\u0e49\u0e32\u0e19": 1683, "\u0e22\u0e32\u0e17": 1684, "\u0e23\u0e23\u0e04": 1685, "\u0e25\u0e2d\u0e14": 1686, "\u0e04\u0e23\u0e2d\u0e1a": 1687, "\u0e44\u0e04": 1688, "\u0e18\u0e22": 1689, "\u0e1b\u0e25\u0e32\u0e22": 1690, "\u0e1b\u0e2d": 1691, "\u0e40\u0e25\u0e22": 1692, "\u0e32\u0e23\u0e4c\u0e14": 1693, "\u0e01\u0e23\u0e30\u0e2a": 1694, "\u0e4a\u0e01": 1695, "\u0e24\u0e01\u0e29": 1696, "\u0e35\u0e01\u0e32": 1697, "\u0e35\u0e48\u0e22\u0e21": 1698, "\u0e27\u0e31\u0e27": 1699, "\u0e40\u0e04\u0e2a": 1700, "\u0e23\u0e48\u0e21": 1701, "\u0e14\u0e27\u0e07": 1702, "\u0e40\u0e27\u0e25": 1703, "\u0e2a\u0e49": 1704, "\u0e38\u0e07": 1705, "\u0e15\u0e31\u0e27\u0e40\u0e2d": 1706, "\u0e1f\u0e2d\u0e01": 1707, "\u0e14\u0e31\u0e01": 1708, "\u0e37\u0e2d\u0e19": 1709, "\u0e40\u0e09\u0e25": 1710, "\u0e15\u0e38\u0e25\u0e32": 1711, "\u0e2a\u0e2b": 1712, "\u0e18\u0e34\u0e1b\u0e44\u0e15\u0e22": 1713, "\u0e44\u0e17\u0e40": 1714, "\u0e19\u0e31\u0e01\u0e01": 1715, "\u0e23\u0e20": 1716, "\u0e25\u0e36\u0e07": 1717, "\u0e41\u0e21\u0e48\u0e21": 1718, "\u0e1a\u0e31\u0e14": 1719, "\u0e23\u0e32\u0e0a\u0e32": 1720, "\u0e14\u0e23": 1721, "\u0e25\u0e48\u0e2d\u0e19": 1722, "\u0e2a\u0e30\u0e14": 1723, "\u0e40\u0e02\u0e49\u0e21": 1724, "\u0e35\u0e4a\u0e22": 1725, "\u0e04\u0e32\u0e19": 1726, "\u0e2b\u0e32\u0e23": 1727, "\u0e18\u0e23": 1728, "\u0e40\u0e28\u0e29": 1729, "\u0e21\u0e27\u0e25": 1730, "\u0e19\u0e27": 1731, "\u0e1a\u0e34\u0e25": 1732, "\u0e40\u0e1e\u0e37\u0e48\u0e2d": 1733, "\u0e40\u0e25\u0e37\u0e2d\u0e01": 1734, "\u0e40\u0e2b\u0e21\u0e37\u0e2d\u0e19": 1735, "\u0e09\u0e49\u0e2d": 1736, "\u0e28\u0e32\u0e2a\u0e15\u0e23": 1737, "\u0e2a\u0e31\u0e15\u0e27": 1738, "\u0e25\u0e38\u0e48\u0e21": 1739, "\u0e40\u0e1a\u0e34\u0e01": 1740, "\u0e40\u0e1b\u0e23\u0e35\u0e49\u0e22\u0e27": 1741, "\u0e1c\u0e14\u0e38\u0e07": 1742, "\u0e40\u0e2d\u0e37\u0e49\u0e2d\u0e40\u0e1f\u0e37\u0e49\u0e2d": 1743, "\u0e19\u0e34\u0e27\u0e22\u0e2d\u0e23\u0e4c\u0e01": 1744, "\u0e1a\u0e23\u0e34\u0e40\u0e15\u0e19": 1745, "\u0e20\u0e32\u0e1e\u0e22\u0e19\u0e15\u0e23\u0e4c": 1746, "\u0e21\u0e36\u0e19": 1747, "\u0e2d\u0e23\u0e23\u0e06": 1748, "\u0e2d\u0e27\u0e31\u0e22\u0e27\u0e30": 1749, "\u0e40\u0e02\u0e35\u0e49\u0e22\u0e27": 1750, "\u0e40\u0e21\u0e47\u0e01\u0e0b\u0e34\u0e42\u0e01": 1751, "\u0e02\u0e49\u0e32\u0e27\u0e2b\u0e25\u0e32\u0e21": 1752, "\u0e04\u0e2d\u0e19\u0e01\u0e23\u0e35\u0e15": 1753, "\u0e20\u0e38\u0e0a\u0e07\u0e04": 1754, "\u0e28\u0e39\u0e19\u0e22\u0e4c": 1755, "\u0e2a\u0e21\u0e40\u0e14\u0e47\u0e08\u0e1e\u0e23\u0e30": 1756, "\u0e1a\u0e1e\u0e34\u0e15\u0e23": 1757, "\u0e2b\u0e19\u0e38\u0e21\u0e32\u0e19": 1758, "\u0e08\u0e34\u0e07\u0e42\u0e08\u0e49": 1759, "\u0e01\u0e23\u0e23\u0e44\u0e01\u0e23": 1760, "\u0e40\u0e01\u0e29\u0e35\u0e22": 1761, "\u0e04\u0e23\u0e1a\u0e23\u0e2d\u0e1a": 1762, "\u0e1a\u0e31\u0e19\u0e17\u0e36\u0e01": 1763, "\u0e21\u0e25\u0e20\u0e32\u0e27\u0e30": 1764, "\u0e19\u0e34\u0e27\u0e40\u0e04\u0e25\u0e35\u0e22": 1765, "\u0e40\u0e1a\u0e37\u0e49\u0e2d\u0e07": 1766, "\u0e21\u0e35\u0e14\u0e1e\u0e31\u0e1a": 1767, "\u0e01\u0e23\u0e30\u0e42\u0e14\u0e14": 1768, "\u0e1a\u0e38\u0e2b\u0e23\u0e35\u0e48": 1769, "\u0e1e\u0e23\u0e30\u0e1e\u0e38\u0e17\u0e18\u0e40\u0e08\u0e49\u0e32": 1770, "\u0e2a\u0e21\u0e31\u0e04\u0e23": 1771, "\u0e42\u0e06\u0e29\u0e13\u0e32": 1772, "\u0e40\u0e04\u0e37\u0e2d\u0e07": 1773, "\u0e01\u0e23\u0e30\u0e1b\u0e38\u0e01": 1774, "\u0e40\u0e1c\u0e37\u0e48\u0e2d": 1775, "\u0e1c\u0e13\u0e34": 1776, "\u0e1b\u0e25\u0e2d\u0e14\u0e20\u0e31\u0e22": 1777, "\u0e01\u0e23\u0e34\u0e22\u0e32\u0e27\u0e34\u0e40\u0e28\u0e29\u0e13": 1778, "\u0e17\u0e34\u0e0a\u0e0a\u0e39": 1779, "\u0e40\u0e2d\u0e01\u0e2d\u0e31\u0e04\u0e23": 1780, "\u0e16\u0e36\u0e07\u0e41\u0e01\u0e48": 1781, "\u0e2a\u0e21\u0e1a\u0e39\u0e23\u0e13": 1782, "\u0e01\u0e23\u0e30\u0e16\u0e32\u0e07": 1783, "\u0e16\u0e32\u0e27\u0e23": 1784, "\u0e42\u0e25\u0e2b\u0e34\u0e15": 1785, "\u0e23\u0e32\u0e0a\u0e2d\u0e32\u0e13\u0e32\u0e08\u0e31\u0e01\u0e23": 1786, "\u0e28\u0e31\u0e25\u0e22\u0e01\u0e23\u0e23\u0e21": 1787, "\u0e40\u0e0b\u0e25\u0e1f\u0e35": 1788, "\u0e27\u0e34\u0e19\u0e32\u0e28": 1789, "\u0e14\u0e32\u0e27\u0e41\u0e04\u0e23\u0e30": 1790, "\u0e40\u0e15\u0e32\u0e2d\u0e1a": 1791, "\u0e44\u0e02\u0e21\u0e31\u0e19": 1792, "\u0e2a\u0e38\u0e23\u0e34\u0e22": 1793, "\u0e40\u0e02\u0e47\u0e21\u0e02\u0e31\u0e14": 1794, "\u0e40\u0e09\u0e25\u0e34\u0e21": 1795, "\u0e40\u0e28\u0e23\u0e49\u0e32": 1796, "\u0e2a\u0e34\u0e19\u0e04\u0e49\u0e32": 1797, "\u0e1a\u0e38\u0e23\u0e1e": 1798, "\u0e40\u0e2d\u0e40\u0e0a\u0e35\u0e22": 1799, "\u0e01\u0e2d\u0e07\u0e17\u0e31\u0e1e": 1800, "\u0e15\u0e30\u0e27\u0e31\u0e19\u0e2d\u0e2d\u0e01": 1801, "\u0e2d\u0e19\u0e34\u0e08": 1802, "\u0e40\u0e2a\u0e49\u0e19\u0e23\u0e2d\u0e1a": 1803, "\u0e1c\u0e49\u0e32\u0e40\u0e0a\u0e47\u0e14": 1804, "\u0e19\u0e31\u0e01\u0e29\u0e31\u0e15\u0e23": 1805, "\u0e40\u0e0a\u0e35\u0e22\u0e23\u0e4c": 1806, "\u0e2b\u0e21\u0e37\u0e48\u0e19": 1807, "\u0e1f\u0e38\u0e15": 1808, "\u0e25\u0e4d\u0e32\u0e14\u0e31\u0e1a": 1809, "\u0e40\u0e15\u0e23\u0e35\u0e22\u0e21": 1810, "\u0e1b\u0e23\u0e30\u0e0a\u0e32\u0e18\u0e34\u0e1b\u0e44\u0e15\u0e22": 1811, "\u0e25\u0e37\u0e48\u0e19": 1812, "\u0e40\u0e2d\u0e47\u0e01\u0e0b\u0e4c": 1813, "\u0e43\u0e04\u0e23\u0e48": 1814, "\u0e15\u0e49\u0e32\u0e19\u0e17\u0e32\u0e19": 1815, "\u0e1b\u0e4a\u0e2d\u0e1b": 1816, "\u0e15\u0e38\u0e4a\u0e01\u0e15\u0e32": 1817, "\u0e1e\u0e34\u0e18\u0e35": 1818, "\u0e40\u0e04\u0e23\u0e37\u0e2d": 1819, "\u0e2d\u0e31\u0e22\u0e01\u0e32\u0e23": 1820, "\u0e27\u0e34\u0e08\u0e34\u0e15\u0e23": 1821, "\u0e01\u0e25\u0e48\u0e32\u0e27": 1822, "\u0e23\u0e2d\u0e07\u0e40\u0e17\u0e49\u0e32": 1823, "\u0e1a\u0e31\u0e0d\u0e0a\u0e35": 1824, "\u0e40\u0e01\u0e35\u0e22\u0e08": 1825, "\u0e2a\u0e2b\u0e23\u0e31\u0e10": 1826, "\u0e1b\u0e23\u0e30\u0e15\u0e39": 1827, "\u0e17\u0e2d\u0e40\u0e23\u0e35\u0e22": 1828, "\u0e08\u0e38\u0e21\u0e1e": 1829, "\u0e40\u0e04\u0e23\u0e37\u0e48\u0e2d\u0e07\u0e22\u0e19\u0e15\u0e4c": 1830, "\u0e41\u0e0a\u0e48": 1831, "\u0e21\u0e2d\u0e40\u0e15\u0e2d\u0e23\u0e4c": 1832, "\u0e2b\u0e19\u0e27\u0e01": 1833, "\u0e40\u0e1e\u0e35\u0e22\u0e1a": 1834, "\u0e2d\u0e23\u0e38\u0e13": 1835, "\u0e2b\u0e21\u0e36\u0e01": 1836, "\u0e44\u0e15\u0e48": 1837, "\u0e15\u0e32\u0e23\u0e32\u0e07": 1838, "\u0e21\u0e1a\u0e4c": 1839, "\u0e2d\u0e31\u0e21\u0e1e": 1840, "\u0e42\u0e25\u0e20": 1841, "\u0e40\u0e0a\u0e47\u0e14": 1842, "\u0e2d\u0e40\u0e21\u0e23\u0e34\u0e01\u0e32": 1843, "\u0e41\u0e2a\u0e14\u0e07": 1844, "\u0e01\u0e23\u0e30\u0e1a\u0e27\u0e19": 1845, "\u0e25\u0e30\u0e2d\u0e2d\u0e07": 1846, "\u0e01\u0e23\u0e30\u0e40\u0e1e\u0e32\u0e30": 1847, "\u0e44\u0e15\u0e49": 1848, "\u0e01\u0e29\u0e31\u0e15\u0e23": 1849, "\u0e21\u0e24\u0e04": 1850, "\u0e23\u0e30\u0e1a\u0e32\u0e14": 1851, "\u0e19\u0e31\u0e01\u0e41\u0e15\u0e48\u0e07": 1852, "\u0e1b\u0e23\u0e30\u0e2a\u0e34\u0e17\u0e18\u0e34": 1853, "\u0e44\u0e1b\u0e23\u0e29\u0e13\u0e35\u0e22\u0e4c": 1854, "\u0e01\u0e23\u0e30\u0e2b\u0e32\u0e22": 1855, "\u0e1e\u0e23\u0e30\u0e22\u0e32": 1856, "\u0e40\u0e1a\u0e07\u0e01": 1857, "\u0e2b\u0e19\u0e27\u0e14": 1858, "\u0e22\u0e31\u0e01\u0e29\u0e4c": 1859, "\u0e40\u0e2b\u0e25\u0e47\u0e01\u0e44\u0e1f": 1860, "\u0e17\u0e23\u0e07\u0e1e\u0e23\u0e30": 1861, "\u0e40\u0e1b\u0e25\u0e27": 1862, "\u0e17\u0e48\u0e2d\u0e19\u0e49\u0e4d\u0e32": 1863, "\u0e17\u0e38\u0e48\u0e07": 1864, "\u0e16\u0e31\u0e48\u0e07\u0e40": 1865, "\u0e42\u0e1f\u0e25\u0e40": 1866, "\u0e1b\u0e23\u0e21\u0e34\u0e19\u0e17\u0e23": 1867, "\u0e0b\u0e36\u0e48\u0e07": 1868, "\u0e15\u0e25\u0e2d\u0e14": 1869, "\u0e2a\u0e4d\u0e32\u0e19\u0e31\u0e01": 1870, "\u0e40\u0e15\u0e48\u0e32": 1871, "\u0e40\u0e01\u0e4a\u0e01": 1872, "\u0e01\u0e25\u0e37\u0e19": 1873, "\u0e40\u0e1b\u0e49\u0e32": 1874, "\u0e42\u0e15\u0e49": 1875, "\u0e40\u0e04\u0e21\u0e35": 1876, "\u0e01\u0e23\u0e13\u0e35": 1877, "\u0e02\u0e1a\u0e27\u0e19": 1878, "\u0e22\u0e38\u0e04": 1879, "\u0e27\u0e38\u0e49\u0e19": 1880, "\u0e19\u0e32\u0e23\u0e32\u0e22": 1881, "\u0e27\u0e23": 1882, "\u0e40\u0e15\u0e47\u0e21": 1883, "\u0e19\u0e49\u0e4d\u0e32\u0e15\u0e32\u0e25": 1884, "\u0e41\u0e1b\u0e49\u0e19": 1885, "\u0e04\u0e38\u0e49\u0e19": 1886, "\u0e40\u0e19\u0e47\u0e15": 1887, "\u0e2a\u0e23\u0e13": 1888, "\u0e25\u0e34\u0e48\u0e21": 1889, "\u0e2a\u0e21\u0e38\u0e14": 1890, "\u0e0a\u0e49\u0e2d\u0e19": 1891, "\u0e2a\u0e38\u0e20\u0e32\u0e1e": 1892, "\u0e15\u0e38\u0e25\u0e32\u0e01\u0e32\u0e23": 1893, "\u0e42\u0e07\u0e48": 1894, "\u0e1a\u0e2d\u0e2a": 1895, "\u0e44\u0e23\u0e48": 1896, "\u0e09\u0e32\u0e01": 1897, "\u0e41\u0e04\u0e49\u0e19": 1898, "\u0e01\u0e27\u0e32\u0e14": 1899, "\u0e01\u0e32\u0e23\u0e19\u0e31\u0e14": 1900, "\u0e1c\u0e39\u0e49\u0e43\u0e2b\u0e0d\u0e48": 1901, "\u0e41\u0e19\u0e48\u0e27": 1902, "\u0e40\u0e2b\u0e25\u0e32": 1903, "\u0e2a\u0e30\u0e1e\u0e32\u0e19": 1904, "\u0e2a\u0e32\u0e22\u0e15\u0e32": 1905, "\u0e14\u0e49\u0e32\u0e22": 1906, "\u0e2a\u0e21\u0e31\u0e22": 1907, "\u0e42\u0e25\u0e14": 1908, "\u0e2a\u0e15\u0e23\u0e35": 1909, "\u0e20\u0e39\u0e21\u0e34\u0e28\u0e32\u0e2a\u0e15\u0e23\u0e4c": 1910, "\u0e41\u0e15\u0e30": 1911, "\u0e2d\u0e07\u0e04\u0e4c\u0e01\u0e23": 1912, "\u0e01\u0e23\u0e30\u0e08\u0e01": 1913, "\u0e2a\u0e1a\u0e32\u0e22": 1914, "\u0e25\u0e31\u0e01\u0e29\u0e13\u0e30": 1915, "\u0e2a\u0e27\u0e34\u0e2a": 1916, "\u0e17\u0e38\u0e48\u0e19": 1917, "\u0e40\u0e22\u0e37\u0e2d\u0e01": 1918, "\u0e40\u0e02\u0e49\u0e32\u0e43\u0e08": 1919, "\u0e21\u0e2b\u0e34\u0e15": 1920, "\u0e1c\u0e31\u0e14": 1921, "\u0e41\u0e0b\u0e48": 1922, "\u0e25\u0e2d\u0e1a": 1923, "\u0e40\u0e1e\u0e01\u0e32": 1924, "\u0e01\u0e32\u0e01\u0e35": 1925, "\u0e02\u0e38\u0e14": 1926, "\u0e2b\u0e48\u0e2d": 1927, "\u0e0b\u0e35\u0e23\u0e35": 1928, "\u0e2b\u0e31\u0e27\u0e43\u0e08": 1929, "\u0e25\u0e48\u0e27\u0e07": 1930, "\u0e42\u0e08\u0e21": 1931, "\u0e14\u0e31\u0e19": 1932, "\u0e16\u0e38\u0e19": 1933, "\u0e04\u0e27\u0e32\u0e21\u0e23\u0e31\u0e01": 1934, "\u0e0b\u0e31\u0e21": 1935, "\u0e44\u0e0b\u0e40\u0e1a\u0e2d\u0e23\u0e4c": 1936, "\u0e1a\u0e23\u0e23\u0e22\u0e32\u0e22": 1937, "\u0e2b\u0e25\u0e27": 1938, "\u0e2a\u0e16\u0e32\u0e19\u0e35": 1939, "\u0e2d\u0e49\u0e32\u0e07": 1940, "\u0e42\u0e2e": 1941, "\u0e15\u0e38\u0e48\u0e19": 1942, "\u0e1e\u0e49\u0e19": 1943, "\u0e2a\u0e39\u0e1a": 1944, "\u0e40\u0e1b\u0e25\u0e35\u0e48\u0e22\u0e19": 1945, "\u0e35\u0e48\u0e1b": 1946, "\u0e0a\u0e27\u0e19": 1947, "\u0e08\u0e32\u0e19": 1948, "\u0e2b\u0e25\u0e32\u0e22": 1949, "\u0e1b\u0e35\u0e48": 1950, "\u0e27\u0e31\u0e0a": 1951, "\u0e01\u0e32\u0e23\u0e08\u0e31\u0e14": 1952, "\u0e34\u0e21\u0e1a\u0e31\u0e1a": 1953, "\u0e41\u0e21\u0e2a": 1954, "\u0e1b\u0e31\u0e07": 1955, "\u0e08\u0e31\u0e07": 1956, "\u0e1b\u0e25\u0e35": 1957, "\u0e01\u0e31\u0e25": 1958, "\u0e2a\u0e49\u0e21": 1959, "\u0e29\u0e01": 1960, "\u0e40\u0e1e\u0e34\u0e48\u0e21": 1961, "\u0e08\u0e34\u0e19\u0e15": 1962, "\u0e19\u0e32\u0e22\u0e17": 1963, "\u0e08\u0e1a": 1964, "\u0e1b\u0e25\u0e14": 1965, "\u0e01\u0e32\u0e23\u0e14\u0e39": 1966, "\u0e2a\u0e25\u0e32\u0e22": 1967, "\u0e40\u0e2b\u0e27": 1968, "\u0e13\u0e34\u0e0a": 1969, "\u0e15\u0e49\u0e2d\u0e07": 1970, "\u0e14\u0e34\u0e2a": 1971, "\u0e19\u0e49\u0e4d\u0e32\u0e15\u0e32": 1972, "\u0e1f\u0e49\u0e2d": 1973, "\u0e01\u0e32\u0e23\u0e40": 1974, "\u0e40\u0e23\u0e34\u0e48\u0e21": 1975, "\u0e2d\u0e32\u0e01\u0e32\u0e28\u0e22\u0e32\u0e19": 1976, "\u0e2d\u0e19\u0e32\u0e16": 1977, "\u0e09\u0e25\u0e2d\u0e07": 1978, "\u0e2b\u0e25\u0e2d\u0e21": 1979, "\u0e32\u0e27\u0e30": 1980, "\u0e14\u0e32\u0e23\u0e32": 1981, "\u0e15\u0e31\u0e01": 1982, "\u0e23\u0e34\u0e01\u0e32": 1983, "\u0e19\u0e32\u0e22\u0e01": 1984, "\u0e08\u0e23\u0e32": 1985, "\u0e1e\u0e24\u0e01\u0e29": 1986, "\u0e42\u0e14\u0e19": 1987, "\u0e40\u0e2a\u0e35\u0e49\u0e22": 1988, "\u0e41\u0e2d\u0e1b": 1989, "\u0e27\u0e23\u0e23": 1990, "\u0e40\u0e2b\u0e48\u0e32": 1991, "\u0e21\u0e38\u0e01": 1992, "\u0e40\u0e2e": 1993, "\u0e40\u0e15\u0e07": 1994, "\u0e2a\u0e32\u0e14": 1995, "\u0e2d\u0e38\u0e15\u0e23": 1996, "\u0e2b\u0e2d\u0e01": 1997, "\u0e27\u0e31\u0e22": 1998, "\u0e0b\u0e48\u0e2d\u0e19": 1999, "\u0e19\u0e48\u0e32\u0e19": 2000, "\u0e40\u0e1e\u0e08": 2001, "\u0e1b\u0e31\u0e19": 2002, "\u0e40\u0e02\u0e47": 2003, "\u0e2d\u0e34\u0e07": 2004, "\u0e15\u0e34\u0e07": 2005, "\u0e40\u0e21\u0e37\u0e48\u0e2d": 2006, "\u0e16\u0e39\u0e01": 2007, "\u0e0a\u0e21\u0e1e\u0e39": 2008, "\u0e42\u0e08": 2009, "\u0e40\u0e2a\u0e19\u0e48\u0e2b": 2010, "\u0e32\u0e19\u0e38": 2011, "\u0e0b\u0e37\u0e48\u0e2d": 2012, "\u0e15\u0e49\u0e2d\u0e19": 2013, "\u0e21\u0e2d\u0e14": 2014, "\u0e19\u0e2d\u0e22": 2015, "\u0e40\u0e22\u0e35\u0e22": 2016, "\u0e22\u0e34\u0e21": 2017, "\u0e23\u0e23\u0e04\u0e4c": 2018, "\u0e2b\u0e31\u0e27\u0e42": 2019, "\u0e04\u0e27\u0e32\u0e21\u0e41": 2020, "\u0e08\u0e39\u0e1a": 2021, "\u0e21\u0e23\u0e13": 2022, "\u0e19\u0e17\u0e19\u0e32": 2023, "\u0e1c\u0e25\u0e31\u0e01": 2024, "\u0e1e\u0e37\u0e14": 2025, "\u0e1e\u0e32\u0e22\u0e38": 2026, "\u0e1b\u0e23\u0e07": 2027, "\u0e25\u0e35\u0e49": 2028, "\u0e21\u0e32\u0e01": 2029, "\u0e2a\u0e40\u0e01\u0e15\u0e1a\u0e2d": 2030, "\u0e42\u0e23\u0e21": 2031, "\u0e02\u0e32\u0e19": 2032, "\u0e2b\u0e21\u0e48": 2033, "\u0e2d\u0e23\u0e34\u0e22": 2034, "\u0e42\u0e0b\u0e42": 2035, "\u0e02\u0e2d\u0e1a": 2036, "\u0e40\u0e25\u0e2d": 2037, "\u0e1a\u0e31\u0e0d\u0e0a\u0e32": 2038, "\u0e2e\u0e31\u0e21\u0e21": 2039, "\u0e1a\u0e31\u0e13\u0e11\u0e34\u0e15\u0e22": 2040, "\u0e40\u0e09\u0e35\u0e22": 2041, "\u0e04\u0e32\u0e25": 2042, "\u0e18\u0e34\u0e23\u0e32\u0e0a": 2043, "\u0e2d\u0e18\u0e34\u0e1a": 2044, "\u0e35\u0e22\u0e27": 2045, "\u0e14\u0e2a\u0e35": 2046, "\u0e21\u0e24\u0e15": 2047, "\u0e17\u0e35\u0e48\u0e2a\u0e34\u0e1a": 2048, "\u0e23\u0e27\u0e08": 2049, "\u0e13\u0e11": 2050, "\u0e41\u0e2d\u0e01": 2051, "\u0e14\u0e25": 2052, "\u0e15\u0e30\u0e01": 2053, "\u0e21\u0e38\u0e14": 2054, "\u0e41\u0e02\u0e27\u0e19": 2055, "\u0e41\u0e2b\u0e01": 2056, "\u0e2b\u0e23\u0e48\u0e32": 2057, "\u0e23\u0e32\u0e18\u0e34": 2058, "\u0e16\u0e31\u0e07": 2059, "\u0e1a\u0e4d\u0e32": 2060, "\u0e44\u0e27\u0e42\u0e2d\u0e40\u0e25": 2061, "\u0e39\u0e0d": 2062, "\u0e23\u0e31\u0e07\u0e2a\u0e35": 2063, "\u0e25\u0e49\u0e32\u0e19": 2064, "\u0e1e\u0e22\u0e32\u0e1a\u0e32": 2065, "\u0e40\u0e25\u0e37\u0e48\u0e2d": 2066, "\u0e17\u0e19": 2067, "\u0e04\u0e35\u0e15": 2068, "\u0e16\u0e48\u0e27\u0e07": 2069, "\u0e1c\u0e31": 2070, "\u0e44\u0e2a": 2071, "\u0e22\u0e07": 2072, "\u0e1b\u0e23\u0e38\u0e07": 2073, "\u0e01\u0e47": 2074, "\u0e41\u0e1e\u0e19": 2075, "\u0e21\u0e31\u0e2a": 2076, "\u0e27\u0e31\u0e07": 2077, "\u0e2d\u0e38\u0e15": 2078, "\u0e07\u0e32\u0e21": 2079, "\u0e08\u0e34\u0e4a": 2080, "\u0e2e\u0e35": 2081, "\u0e40\u0e15\u0e32": 2082, "\u0e21\u0e31\u0e25": 2083, "\u0e41\u0e25\u0e19": 2084, "\u0e01\u0e14": 2085, "\u0e01\u0e31\u0e25\u0e1b": 2086, "\u0e1a\u0e32\u0e07": 2087, "\u0e42\u0e1c": 2088, "\u0e40\u0e2b\u0e23\u0e48": 2089, "\u0e42\u0e04\u0e49": 2090, "\u0e2d\u0e07\u0e04\u0e0a\u0e32\u0e15": 2091, "\u0e40\u0e1b\u0e47\u0e19\u0e44\u0e1b": 2092, "\u0e35\u0e19": 2093, "\u0e1a\u0e31\u0e07\u0e04\u0e21": 2094, "\u0e34\u0e0a": 2095, "\u0e44\u0e0b\u0e1a": 2096, "\u0e14\u0e2d\u0e25": 2097, "\u0e01\u0e30\u0e42": 2098, "\u0e40\u0e21\u0e37\u0e2d": 2099, "\u0e1e\u0e25\u0e39": 2100, "\u0e2d\u0e2d\u0e15": 2101, "\u0e41\u0e1c\u0e48\u0e19": 2102, "\u0e2d\u0e4a\u0e1a": 2103, "\u0e38\u0e48\u0e22": 2104, "\u0e17\u0e31\u0e01": 2105, "\u0e42\u0e0a\u0e04": 2106, "\u0e2a\u0e39": 2107, "\u0e40\u0e01\u0e25\u0e47\u0e14": 2108, "\u0e48\u0e2d\u0e21": 2109, "\u0e21\u0e34\u0e04": 2110, "\u0e38\u0e13\u0e11": 2111, "\u0e40\u0e17\u0e48": 2112, "\u0e2b\u0e21\u0e38\u0e19": 2113, "\u0e34\u0e19\u0e14\u0e35": 2114, "\u0e2a\u0e23\u0e23": 2115, "\u0e47\u0e1a": 2116, "\u0e32\u0e2a": 2117, "\u0e1a\u0e14": 2118, "\u0e25\u0e48\u0e2d": 2119, "\u0e1d\u0e31\u0e48\u0e07": 2120, "\u0e38\u0e15\u0e23": 2121, "\u0e2a\u0e2a\u0e32\u0e23": 2122, "\u0e27\u0e32\u0e19": 2123, "\u0e2a\u0e31\u0e1b\u0e14": 2124, "\u0e2d\u0e32\u0e19": 2125, "\u0e25\u0e31\u0e07": 2126, "\u0e01\u0e4b": 2127, "\u0e21\u0e31\u0e48\u0e27": 2128, "\u0e19\u0e32\u0e27": 2129, "\u0e40\u0e08\u0e4a": 2130, "\u0e2a\u0e2d\u0e19": 2131, "\u0e40\u0e1a\u0e2a": 2132, "\u0e20\u0e34\u0e15": 2133, "\u0e42\u0e02": 2134, "\u0e01\u0e23\u0e23": 2135, "\u0e1e\u0e01": 2136, "\u0e01\u0e2d": 2137, "\u0e2a\u0e34\u0e1a\u0e41\u0e1b\u0e14": 2138, "\u0e04\u0e1a": 2139, "\u0e1e\u0e48\u0e2d\u0e07": 2140, "\u0e2b\u0e07\u0e32": 2141, "\u0e2b\u0e21\u0e2d\u0e19": 2142, "\u0e1e\u0e32\u0e23\u0e32": 2143, "\u0e19\u0e34\u0e22\u0e32": 2144, "\u0e35\u0e40\u0e19\u0e35\u0e22": 2145, "\u0e27\u0e25": 2146, "\u0e1b\u0e23\u0e30\u0e08": 2147, "\u0e24\u0e29": 2148, "\u0e42\u0e19\u0e49": 2149, "\u0e25\u0e2d": 2150, "\u0e17\u0e35\u0e1b": 2151, "\u0e34\u0e23\u0e34": 2152, "\u0e40\u0e2d\u0e4b": 2153, "\u0e2d\u0e17": 2154, "\u0e40\u0e2d\u0e47": 2155, "\u0e42\u0e2b\u0e14": 2156, "\u0e40\u0e14\u0e19": 2157, "\u0e34\u0e40\u0e21": 2158, "\u0e4b\u0e32": 2159, "\u0e22\u0e2d\u0e07": 2160, "\u0e48\u0e27": 2161, "\u0e44\u0e0b\u0e40": 2162, "\u0e04\u0e23\u0e23": 2163, "\u0e40\u0e01\u0e23\u0e35\u0e22": 2164, "\u0e27\u0e07\u0e01": 2165, "\u0e07\u0e30": 2166, "\u0e1e\u0e31\u0e14": 2167, "\u0e01\u0e15\u0e34": 2168, "\u0e08\u0e48\u0e32": 2169, "\u0e17\u0e31\u0e01\u0e29": 2170, "\u0e44\u0e14\u0e23": 2171, "\u0e01\u0e39\u0e25": 2172, "\u0e25\u0e39": 2173, "\u0e15\u0e19": 2174, "\u0e4a\u0e2d\u0e1a": 2175, "\u0e21\u0e01\u0e23\u0e32": 2176, "\u0e42\u0e25\u0e49": 2177, "\u0e41\u0e09": 2178, "\u0e22\u0e35\u0e48": 2179, "\u0e1b\u0e4a\u0e30": 2180, "\u0e40\u0e14\u0e37\u0e2d\u0e14": 2181, "\u0e2d\u0e1f\u0e1f": 2182, "\u0e04\u0e27\u0e32\u0e21\u0e2a": 2183, "\u0e2b\u0e25\u0e32": 2184, "\u0e40\u0e2b\u0e25": 2185, "\u0e2d\u0e38\u0e48\u0e19": 2186, "\u0e18\u0e19\u0e32": 2187, "\u0e1a\u0e32\u0e17\u0e27": 2188, "\u0e2a\u0e15\u0e32": 2189, "\u0e23\u0e07": 2190, "\u0e17\u0e49\u0e32": 2191, "\u0e01\u0e23\u0e30\u0e1a\u0e2d": 2192, "\u0e01\u0e32\u0e23\u0e2b": 2193, "\u0e1a\u0e04\u0e38": 2194, "\u0e1e\u0e32\u0e17": 2195, "\u0e2d\u0e38\u0e23": 2196, "\u0e01\u0e25\u0e48\u0e2d\u0e07": 2197, "\u0e1a\u0e4b": 2198, "\u0e27\u0e32\u0e14": 2199, "\u0e1a\u0e23\u0e34\u0e01\u0e32\u0e23": 2200, "\u0e04\u0e32\u0e23\u0e4c": 2201, "\u0e01\u0e32\u0e23\u0e22": 2202, "\u0e23\u0e14": 2203, "\u0e1a\u0e2d": 2204, "\u0e1b\u0e23\u0e30\u0e14\u0e31": 2205, "\u0e2d\u0e31\u0e2a": 2206, "\u0e40\u0e1b\u0e34": 2207, "\u0e14\u0e38\u0e14": 2208, "\u0e41\u0e01\u0e21": 2209, "\u0e49\u0e2d\u0e21": 2210, "\u0e01\u0e30\u0e25": 2211, "\u0e25\u0e35\u0e48": 2212, "\u0e40\u0e1b\u0e32": 2213, "\u0e2a\u0e32\u0e21\u0e40\u0e2b\u0e25\u0e35\u0e48\u0e22\u0e21": 2214, "\u0e23\u0e13": 2215, "\u0e25\u0e40\u0e25": 2216, "\u0e09\u0e34": 2217, "\u0e39\u0e1b": 2218, "\u0e27\u0e35\u0e14": 2219, "\u0e34\u0e15\u0e15\u0e34": 2220, "\u0e2a\u0e42": 2221, "\u0e1e\u0e23\u0e23\u0e04": 2222, "\u0e44\u0e2e": 2223, "\u0e1e\u0e24\u0e29\u0e20": 2224, "\u0e40\u0e01\u0e32": 2225, "\u0e01\u0e32\u0e23\u0e08": 2226, "\u0e1e\u0e31\u0e1a": 2227, "\u0e34\u0e49\u0e21": 2228, "\u0e04\u0e23\u0e2d\u0e1a\u0e04\u0e23": 2229, "\u0e0a\u0e34\u0e21": 2230, "\u0e2d\u0e4d\u0e32\u0e1e": 2231, "\u0e1c\u0e25\u0e04": 2232, "\u0e25\u0e2d\u0e01": 2233, "\u0e34\u0e17\u0e31": 2234, "\u0e0a\u0e35\u0e27\u0e19": 2235, "\u0e39\u0e01": 2236, "\u0e14\u0e37\u0e2d": 2237, "\u0e40\u0e08\u0e2d": 2238, "\u0e02\u0e31\u0e14\u0e02": 2239, "\u0e01\u0e4a\u0e27": 2240, "\u0e04\u0e31\u0e19": 2241, "\u025b": 2242, "\u0e4a\u0e1a": 2243, "\u0e15\u0e21": 2244, "\u0e41\u0e01\u0e4a": 2245, "\u0e1c\u0e32": 2246, "\u0e21\u0e34\u0e15\u0e23": 2247, "\u0e34\u0e13": 2248, "\u0e04\u0e27\u0e32\u0e21\u0e1e\u0e34": 2249, "\u0e02\u0e48\u0e21": 2250, "\u0e25\u0e38": 2251, "\u0e02\u0e35": 2252, "\u0e40\u0e21\u0e25": 2253, "\u0e08\u0e4a": 2254, "\u0e40\u0e2b\u0e23": 2255, "\u0e1c\u0e48\u0e32": 2256, "\u0e19\u0e2d\u0e07": 2257, "\u0e14\u0e01": 2258, "\u0e2a\u0e23\u0e23\u0e04": 2259, "\u0e1b\u0e31\u0e08\u0e08": 2260, "\u0e1f\u0e2d": 2261, "\u0e32\u0e25\u0e31\u0e21": 2262, "\u0e40\u0e25\u0e35\u0e48\u0e22": 2263, "\u0e15\u0e31\u0e07": 2264, "\u0e1e\u0e32\u0e25": 2265, "\u0e27\u0e34\u0e0a": 2266, "\u0e41\u0e08\u0e01": 2267, "\u0e2d\u0e40\u0e23": 2268, "\u0e07\u0e32": 2269, "\u0e07\u0e04": 2270, "\u0e40\u0e22\u0e2d\u0e23": 2271, "\u0e32\u0e27\u0e34\u0e01": 2272, "\u0e34\u0e0a\u0e34": 2273, "\u0e1b\u0e23\u0e30\u0e21\u0e32": 2274, "\u0e4d\u0e32\u0e19\u0e31": 2275, "\u0e1b\u0e23\u0e35": 2276, "\u0e0b\u0e2d\u0e2a": 2277, "\u0e15\u0e30\u0e1e": 2278, "\u0e20\u0e32\u0e23": 2279, "\u0e2d\u0e31\u0e25\u0e15\u0e23\u0e32": 2280, "\u0e01\u0e23\u0e14": 2281, "\u0e41\u0e2e": 2282, "ua\u032f": 2283, "\u0e40\u0e1e\u0e23": 2284, "\u0e27\u0e31\u0e01": 2285, "\u0e17\u0e34\u0e1e\u0e22": 2286, "\u0e49\u0e4d\u0e32": 2287, "\u0e21\u0e27\u0e22": 2288, "\u0e39\u0e21": 2289, "\u0e31\u0e1e": 2290, "\u0e1e\u0e19\u0e21": 2291, "\u0e1a\u0e39\u0e25": 2292, "\u0e01\u0e31\u0e27": 2293, "\u0e2a\u0e40\u0e1b": 2294, "\u0e15\u0e48\u0e32\u0e07\u0e14": 2295, "\u0e01\u0e23\u0e19": 2296, "\u0e01\u0e49\u0e32": 2297, "\u0e01\u0e32\u0e23\u0e1e": 2298, "\u0e23\u0e30\u0e22": 2299, "\u0e1a\u0e25\u0e34": 2300, "\u0e01\u0e27\u0e48\u0e32": 2301, "\u0e25\u0e19": 2302, "\u0e07\u0e2d\u0e21": 2303, "\u0e40\u0e1e\u0e37\u0e48\u0e2d\u0e19\u0e23\u0e48\u0e27\u0e21": 2304, "\u0e21\u0e31\u0e48\u0e19": 2305, "\u0e27\u0e34\u0e15\u0e0a": 2306, "\u0e44\u0e21\u0e49\u0e15": 2307, "\u0e01\u0e32\u0e23\u0e0a": 2308, "\u0e17\u0e32\u0e2a": 2309, "\u0e23\u0e32\u0e27": 2310, "\u0e2a\u0e38\u0e02\u0e32": 2311, "\u0e40\u0e2b\u0e07": 2312, "\u0e17\u0e38\u0e23": 2313, "\u0e35\u0e22\u0e1a": 2314, "\u0e21\u0e07": 2315, "\u0e23\u0e48\u0e2d": 2316, "\u0e27\u0e34\u0e07": 2317, "\u0e01\u0e25\u0e21": 2318, "\u0e02\u0e48\u0e21\u0e02": 2319, "\u0e1b\u0e23\u0e30\u0e2a\u0e07\u0e04\u0e4c": 2320, "\u0e04\u0e34": 2321, "\u0e2a\u0e4d\u0e32\u0e23": 2322, "\u0e31\u0e07\u0e01\u0e4c": 2323, "\u0e04\u0e32\u0e14": 2324, "\u0e21\u0e01\u0e23": 2325, "\u0e34\u0e08\u0e09": 2326, "\u0e35\u0e48\u0e22": 2327, "\u0e42\u0e15\u0e23": 2328, "\u0e17\u0e2d": 2329, "\u0e18\u0e32": 2330, "\u0e23\u0e23\u0e22\u0e32": 2331, "\u0e40\u0e25\u0e47": 2332, "\u0e27\u0e34\u0e2a\u0e31": 2333, "\u0e27\u0e2d\u0e25": 2334, "\u0e01\u0e23\u0e30\u0e14": 2335, "\u0e40\u0e21\u0e32": 2336, "\u0e19\u0e34\u0e40": 2337, "\u0e18\u0e32\u0e19": 2338, "\u0e25\u0e07\u0e17": 2339, "\u0e2b\u0e32\u0e14": 2340, "\u0e04\u0e27\u0e32\u0e21\u0e40\u0e04": 2341, "\u0e01\u0e38\u0e19": 2342, "\u0e1e\u0e1a": 2343, "\u0e41\u0e19": 2344, "\u0e04\u0e32\u0e40": 2345, "\u0e2b\u0e19\u0e37": 2346, "\u0e01\u0e32\u0e23\u0e19\u0e34": 2347, "\u0e04\u0e48": 2348, "\u0e17\u0e23\u0e21": 2349, "\u0e27\u0e34\u0e1b": 2350, "\u0e0b\u0e4c": 2351, "\u0e04\u0e23\u0e49\u0e32": 2352, "\u0e18\u0e22\u0e32": 2353, "\u0e1f\u0e32\u0e42": 2354, "\u0e1a\u0e31": 2355, "\u0e27\u0e34\u0e25": 2356, "\u0e40\u0e0b\u0e25": 2357, "\u0e0b\u0e35\u0e14": 2358, "\u0e19\u0e31\u0e01\u0e1e": 2359, "\u0e44\u0e21\u0e49\u0e02": 2360, "\u0e01\u0e23\u0e30\u0e40\u0e1b\u0e4b\u0e32": 2361, "\u0e01\u0e23\u0e07": 2362, "\u0e40\u0e01\u0e23": 2363, "\u0e1a\u0e32\u0e28": 2364, "\u0e19\u0e49\u0e4d\u0e32\u0e21\u0e31\u0e19\u0e1e\u0e23": 2365, "\u0e23\u0e31\u0e01\u0e29\u0e32": 2366, "\u0e2a\u0e27\u0e34": 2367, "\u0e17\u0e31\u0e14": 2368, "\u0e08\u0e37": 2369, "\u0e17\u0e34\u0e19": 2370, "\u0e19\u0e01\u0e41\u0e01\u0e49": 2371, "\u0e07\u0e2a\u0e32\u0e23": 2372, "\u0e2b\u0e21\u0e35\u0e02": 2373, "\u0e27\u0e19\u0e34": 2374, "\u0e1b\u0e25\u0e2d": 2375, "\u0e40\u0e14\u0e32": 2376, "\u0e1e\u0e32\u0e30": 2377, "\u0e1a\u0e23\u0e34\u0e42": 2378, "\u0e28\u0e27\u0e23": 2379, "\u0e0b\u0e34\u0e25": 2380, "\u0e25\u0e34\u0e01": 2381, "\u0e1e\u0e25\u0e40": 2382, "\u0e0a\u0e21": 2383, "\u0e15\u0e30\u0e41\u0e1a": 2384, "\u0e25\u0e25\u0e32": 2385, "\u0e31\u0e19\u0e18": 2386, "\u0e42\u0e2d\u0e1a": 2387, "\u0e47\u0e07": 2388, "\u0e15\u0e30\u0e42\u0e01": 2389, "ia\u032f": 2390, "\u0e09\u0e48\u0e32": 2391, "\u0e01\u0e32\u0e19": 2392, "\u0e2d\u0e23\u0e4c\u0e40\u0e1a\u0e35\u0e22": 2393, "\u0e27\u0e34\u0e40\u0e28\u0e29": 2394, "\u0e01\u0e29\u0e35\u0e23": 2395, "\u0e42\u0e1b\u0e4a": 2396, "\u0e32\u0e25\u0e35": 2397, "\u0e41\u0e17\u0e07": 2398, "\u0e22\u0e32\u0e01": 2399, "\u0e23\u0e49": 2400, "\u0e32\u0e21\u0e31\u0e27": 2401, "\u0e14\u0e0a": 2402, "\u0e44\u0e2b\u0e25": 2403, "\u0e1b\u0e23\u0e31": 2404, "\u0e2b\u0e19\u0e48\u0e32": 2405, "\u0e17\u0e27\u0e34": 2406, "\u0e19\u0e49\u0e4d\u0e32\u0e23\u0e49\u0e2d\u0e19": 2407, "\u0e40\u0e22\u0e32": 2408, "\u0e28\u0e15": 2409, "\u0e0b\u0e34\u0e01": 2410, "\u0e40\u0e25\u0e47\u0e15": 2411, "\u0e04\u0e49": 2412, "\u0e19\u0e31\u0e01\u0e1a": 2413, "\u0e23\u0e31\u0e10\u0e1b\u0e23\u0e30\u0e28\u0e32\u0e2a": 2414, "\u0e23\u0e34\u0e0d": 2415, "\u0e37\u0e48\u0e2d": 2416, "\u0e49\u0e27\u0e19": 2417, "\u0e2a\u0e30\u0e1e": 2418, "\u0e40\u0e0a\u0e35\u0e22": 2419, "\u0e11": 2420, "\u0e02\u0e1a": 2421, "\u0e40\u0e14\u0e48": 2422, "\u0e40\u0e2b\u0e21": 2423, "\u0e35\u0e22\u0e23": 2424, "\u0e1e\u0e25\u0e34": 2425, "\u0e08\u0e31\u0e19": 2426, "\u0e25\u0e48\u0e4d\u0e32": 2427, "\u0e2a\u0e31\u0e0d": 2428, "\u0e1b\u0e21": 2429, "\u0e2d\u0e31\u0e01\u0e29\u0e23\u0e2a\u0e32": 2430, "\u0e2d\u0e32\u0e23\u0e32": 2431, "\u0e2a\u0e31\u0e17": 2432, "\u0e1f\u0e34": 2433, "\u0e2a\u0e14": 2434, "\u0e25\u0e4d\u0e32\u0e40": 2435, "\u0e19\u0e38\u0e48\u0e07": 2436, "\u0e2d\u0e31\u0e04": 2437, "\u0e40\u0e1b\u0e35\u0e22\u0e01\u0e1b": 2438, "\u0e17\u0e34\u0e27": 2439, "\u0e2b\u0e30": 2440, "\u0e01\u0e25\u0e32\u0e22": 2441, "\u0e25\u0e39\u0e01\u0e14": 2442, "\u0e40\u0e2a\u0e19": 2443, "\u0e2b\u0e21\u0e32\u0e2b": 2444, "\u0e31\u0e15\u0e15\u0e32": 2445, "\u0e22\u0e34\u0e1a": 2446, "\u0e27\u0e32\u0e15": 2447, "\u0e40\u0e2a\u0e21": 2448, "\u0e23\u0e31\u0e1a\u0e21": 2449, "\u0e2e\u0e34": 2450, "\u0e32\u0e1b": 2451, "\u0e13\u0e30": 2452, "\u0e41\u0e04\u0e21": 2453, "\u0e2a\u0e35\u0e19\u0e49\u0e4d\u0e32": 2454, "\u0e19\u0e38": 2455, "\u026f": 2456, "\u0e39\u0e07": 2457, "\u0e4b\u0e27": 2458, "\u0e08\u0e2d\u0e07": 2459, "\u0e4a\u0e2a": 2460, "\u0e04\u0e27\u0e32\u0e21\u0e2a\u0e30": 2461, "\u0e23\u0e31\u0e01\u0e29\u0e4c": 2462, "\u0e01\u0e23\u0e32\u0e19": 2463, "\u0e25\u0e31\u0e07\u0e01\u0e32": 2464, "\u0e1e\u0e39\u0e48": 2465, "\u0e01\u0e32\u0e23\u0e17\u0e4d\u0e32": 2466, "\u0e2b\u0e21\u0e27\u0e01": 2467, "\u0e0b\u0e2d\u0e07": 2468, "\u0e37\u0e49\u0e2d": 2469, "\u0e37\u0e48\u0e2d\u0e19": 2470, "\u0e4a\u0e2d": 2471, "\u0e08\u0e07": 2472, "\u0e21\u0e16\u0e48\u0e27\u0e07": 2473, "\u0e1e\u0e24": 2474, "\u0e23\u0e31\u0e27": 2475, "\u0e25\u0e47\u0e2d\u0e01": 2476, "\u0e1f\u0e25": 2477, "\u0e21\u0e31\u0e27": 2478, "\u0e1a\u0e23\u0e23\u0e13": 2479, "\u0e40\u0e02\u0e35\u0e22": 2480, "\u0e31\u0e15\u0e23": 2481, "\u0e21\u0e31\u0e15": 2482, "\u0e21\u0e32\u0e15": 2483, "\u0e1e\u0e23\u0e21": 2484, "\u0e18\u0e34\u0e01\u0e32\u0e23": 2485, "\u0e01\u0e34\u0e15": 2486, "\u0e27\u0e38": 2487, "\u0e36\u0e14": 2488, "\u0e40\u0e2b\u0e48": 2489, "\u0e40\u0e08\u0e49\u0e32\u0e2b": 2490, "\u0e01\u0e4d\u0e32\u0e41": 2491, "\u0e40\u0e22\u0e37\u0e48\u0e2d": 2492, "\u0e35\u0e42\u0e2d": 2493, "\u0e08\u0e31\u0e19\u0e17": 2494, "\u0e14\u0e4d\u0e32\u0e40\u0e19\u0e34\u0e19": 2495, "\u0e2d\u0e32\u0e17\u0e34\u0e15\u0e22": 2496, "\u0e41\u0e1e\u0e17\u0e22": 2497, "\u0e41\u0e08\u0e49\u0e07": 2498, "\u0e23\u0e48\u0e07": 2499, "\u0e31\u0e15\u0e16\u0e38": 2500, "\u0e15\u0e40\u0e15\u0e2d\u0e23": 2501, "\u0e15\u0e30\u0e44\u0e04\u0e23": 2502, "\u0e40\u0e25\u0e35\u0e49\u0e22\u0e27": 2503, "\u0e47\u0e01\u0e0b\u0e4c": 2504, "\u0e42\u0e06\u0e29": 2505, "\u0e17\u0e23\u0e23\u0e28\u0e19\u0e4c\u0e2d\u0e34\u0e40\u0e25\u0e47\u0e01\u0e15\u0e23\u0e2d\u0e19": 2506, "\u0e2a\u0e38\u0e02\u0e2a\u0e31\u0e19\u0e15\u0e4c\u0e27\u0e31\u0e19": 2507, "\u0e0a\u0e48\u0e2d\u0e07\u0e41\u0e04\u0e1a": 2508, "\u0e16\u0e2d\u0e22\u0e2b\u0e25\u0e31\u0e07": 2509, "\u0e40\u0e2d\u0e21\u0e34\u0e40\u0e23\u0e15": 2510, "\u0e01\u0e1a\u0e43\u0e19\u0e01\u0e30\u0e25\u0e32": 2511, "\u0e15\u0e31\u0e4a\u0e01\u0e41\u0e15\u0e19": 2512, "\u0e15\u0e38\u0e25\u0e32\u0e01\u0e32\u0e23\u0e20\u0e34\u0e27\u0e31": 2513, "\u0e21\u0e30\u0e40\u0e23\u0e47\u0e07": 2514, "\u0e22\u0e39\u0e17\u0e39\u0e1b": 2515, "\u0e40\u0e01\u0e29\u0e15\u0e23\u0e01\u0e23": 2516, "\u0e40\u0e2b\u0e25\u0e37\u0e48\u0e2d\u0e21": 2517, "\u0e42\u0e20\u0e0a\u0e19\u0e32": 2518, "\u0e42\u0e25\u0e01\u0e32\u0e20\u0e34\u0e27\u0e31": 2519, "\u0e01\u0e01\u0e38\u0e2a\u0e31\u0e19\u0e18": 2520, "\u0e01\u0e32\u0e23\u0e02\u0e31\u0e14\u0e01\u0e31\u0e19": 2521, "\u0e01\u0e32\u0e23\u0e41\u0e08\u0e01\u0e41\u0e08\u0e07": 2522, "\u0e02\u0e49\u0e2d\u0e40\u0e2a\u0e19\u0e2d": 2523, "\u0e04\u0e27\u0e32\u0e21\u0e14\u0e31\u0e19\u0e42\u0e25\u0e2b\u0e34\u0e15": 2524, "\u0e04\u0e38\u0e13\u0e0a\u0e37\u0e48\u0e2d\u0e2d\u0e30\u0e44\u0e23\u0e04": 2525, "\u0e08\u0e02\u0e01\u0e17": 2526, "\u0e18\u0e31\u0e19\u0e27\u0e32": 2527, "\u0e19\u0e31\u0e01\u0e02\u0e31\u0e15": 2528, "\u0e1b\u0e31\u0e08\u0e09\u0e34\u0e21": 2529, "\u0e1b\u0e38\u0e4b\u0e22": 2530, "\u0e1c\u0e39\u0e49\u0e01\u0e4d\u0e32\u0e01\u0e31\u0e1a": 2531, "\u0e1e\u0e34\u0e1e\u0e34\u0e18\u0e20\u0e31\u0e13\u0e11": 2532, "\u0e20\u0e32\u0e04\u0e22\u0e32\u0e19\u0e38\u0e27\u0e31\u0e15\u0e34": 2533, "\u0e21\u0e2b\u0e32\u0e18\u0e23\u0e23\u0e21\u0e23\u0e32\u0e0a\u0e32": 2534, "\u0e27\u0e34\u0e0d\u0e0d\u0e39": 2535, "\u0e28\u0e31\u0e1e\u0e17\u0e21\u0e39\u0e25": 2536, "\u0e28\u0e34\u0e29\u0e22\u0e4c": 2537, "\u0e2a\u0e15\u0e23\u0e2d\u0e27\u0e4c\u0e40\u0e1a\u0e2d\u0e23\u0e4c\u0e23\u0e35": 2538, "\u0e2a\u0e32\u0e22\u0e31\u0e13\u0e2b\u0e4c": 2539, "\u0e2d\u0e2d\u0e2a\u0e40\u0e15\u0e23": 2540, "\u0e2d\u0e32\u0e16\u0e23\u0e23\u0e1e": 2541, "\u0e2d\u0e38\u0e13\u0e2b": 2542, "\u0e40\u0e0a\u0e29\u0e10": 2543, "\u0e40\u0e1f\u0e0b\u0e1a\u0e38\u0e4a": 2544, "\u0e40\u0e2d\u0e35\u0e49\u0e22\u0e07\u0e2a\u0e32": 2545, "\u0e41\u0e04\u0e25\u0e34\u0e1f\u0e2d\u0e23\u0e4c\u0e40\u0e19\u0e35\u0e22": 2546, "\u0e41\u0e1e\u0e19\u0e14\u0e49\u0e32": 2547, "\u0e41\u0e2d\u0e1f\u0e23\u0e34\u0e01\u0e32": 2548, "\u0e42\u0e01\u0e41\u0e25\u0e15": 2549, "\u0e43\u0e2b\u0e0d\u0e48\u0e41\u0e25\u0e30\u0e44\u0e2d\u0e23\u0e4c\u0e41\u0e25\u0e19\u0e14\u0e4c": 2550, "\u0e44\u0e02\u0e49\u0e23\u0e32\u0e01\u0e2a\u0e32\u0e14": 2551, "\u0e40\u0e2d\u0e2d\u0e2d\u0e2d": 2552, "\u0e02\u0e35\u0e49\u0e14\u0e35\u0e01\u0e27\u0e48\u0e32": 2553, "\u0e15\u0e30\u0e41\u0e21\u0e30\u0e41\u0e04": 2554, "\u0e17\u0e35\u0e48\u0e23\u0e32\u0e1a\u0e2a\u0e39\u0e07": 2555, "\u0e1b\u0e31\u0e0d\u0e2b\u0e32": 2556, "\u0e21\u0e15\u0e34\u0e21\u0e2b\u0e32": 2557, "\u0e2d\u0e19\u0e32\u0e04\u0e15": 2558, "\u0e40\u0e01\u0e23\u0e35\u0e49\u0e22\u0e27": 2559, "\u0e08\u0e31\u0e01\u0e23\u0e27\u0e23\u0e23\u0e14\u0e34": 2560, "\u0e19\u0e23\u0e35\u0e40\u0e27\u0e0a": 2561, "\u0e1b\u0e25\u0e31\u0e4a\u0e01": 2562, "\u0e40\u0e2a\u0e23\u0e47\u0e08\u0e19\u0e32\u0e06\u0e48\u0e32\u0e42\u0e04\u0e16\u0e36\u0e01": 2563, "\u0e04\u0e2d\u0e23\u0e4c\u0e23\u0e31\u0e1b\u0e0a\u0e31": 2564, "\u0e2a\u0e21\u0e38\u0e2b": 2565, "\u0e40\u0e01\u0e32\u0e2b\u0e25\u0e35": 2566, "\u0e2a\u0e30\u0e40\u0e01\u0e47\u0e14": 2567, "\u0e40\u0e0a\u0e37\u0e2d\u0e14": 2568, "\u0e40\u0e16\u0e49\u0e32\u0e41\u0e01\u0e48": 2569, "\u0e40\u0e27\u0e23\u0e31\u0e21\u0e20": 2570, "\u0e2d\u0e31\u0e49\u0e07\u0e21": 2571, "\u0e44\u0e21\u0e49\u0e22\u0e31\u0e19": 2572, "\u0e1b\u0e23\u0e34\u0e4a\u0e19": 2573, "\u0e2a\u0e31\u0e01\u0e02\u0e35": 2574, "\u0e2d\u0e38\u0e15\u0e2a\u0e32\u0e2b": 2575, "\u0e40\u0e1a\u0e49\u0e2d\u0e40\u0e23\u0e34\u0e48\u0e21": 2576, "\u0e01\u0e32\u0e23\u0e4c\u0e15\u0e39\u0e19": 2577, "\u0e1b\u0e23\u0e34\u0e0d\u0e0d\u0e32": 2578, "\u0e42\u0e07\u0e48\u0e40\u0e07\u0e48\u0e32": 2579, "\u0e01\u0e32\u0e23\u0e2b\u0e22\u0e48\u0e32": 2580, "\u0e06\u0e23\u0e32\u0e27\u0e32\u0e2a": 2581, "\u0e17\u0e23\u0e31\u0e1e\u0e22\u0e32\u0e01\u0e23": 2582, "\u0e40\u0e07\u0e37\u0e48\u0e2d\u0e19\u0e44\u0e02": 2583, "\u0e15\u0e31\u0e4b\u0e27": 2584, "\u0e42\u0e14\u0e14\u0e40\u0e14": 2585, "\u0e01\u0e4d\u0e32\u0e21\u0e30\u0e2b\u0e22\u0e35": 2586, "\u0e2d\u0e38\u0e1b\u0e01\u0e32\u0e23\u0e30": 2587, "\u0e36\u0e01\u0e29\u0e32": 2588, "\u0e02\u0e21\u0e34\u0e49\u0e19": 2589, "\u0e14\u0e27\u0e07\u0e2d\u0e32\u0e17\u0e34\u0e15\u0e22\u0e4c": 2590, "\u0e01\u0e32\u0e23\u0e14\u0e4d\u0e32\u0e40\u0e19\u0e34\u0e19\u0e04\u0e14\u0e35": 2591, "\u0e1d\u0e48\u0e32\u0e25\u0e30\u0e2d\u0e2d\u0e07": 2592, "\u0e01\u0e23\u0e30\u0e15\u0e38\u0e01": 2593, "\u0e01\u0e4d\u0e32\u0e25\u0e31\u0e07": 2594, "\u0e2d\u0e34\u0e2a\u0e25\u0e32\u0e21": 2595, "\u0e44\u0e2e\u0e42\u0e14\u0e23": 2596, "\u0e40\u0e01\u0e25\u0e49\u0e32\u0e01\u0e23\u0e30\u0e2b\u0e21\u0e48\u0e2d\u0e21": 2597, "\u0e40\u0e2b\u0e25\u0e47\u0e01\u0e01\u0e25\u0e49\u0e32": 2598, "\u0e4a\u0e14\u0e2a\u0e30": 2599, "\u0e40\u0e22\u0e37\u0e48\u0e2d\u0e2b\u0e38\u0e49\u0e21\u0e2a\u0e21\u0e2d\u0e07": 2600, "\u0e1a\u0e38\u0e04\u0e25\u0e34\u0e01": 2601, "\u0e27\u0e31\u0e2a\u0e14\u0e38": 2602, "\u0e41\u0e2a\u0e23\u0e49\u0e07": 2603, "\u0e15\u0e32\u0e22\u0e40\u0e1e\u0e23\u0e32\u0e30": 2604, "\u0e1b\u0e23\u0e30\u0e2a\u0e32\u0e17": 2605, "\u0e17\u0e32\u0e23\u0e38\u0e13": 2606, "\u0e42\u0e25\u0e07\u0e28\u0e1e": 2607, "\u0e40\u0e1c\u0e0a\u0e34\u0e0d": 2608, "\u0e40\u0e21\u0e37\u0e48\u0e2d\u0e27\u0e32\u0e19": 2609, "\u0e2a\u0e31\u0e21\u0e1b\u0e17\u0e32\u0e19": 2610, "\u0e40\u0e2b\u0e25\u0e35\u0e22\u0e27": 2611, "\u0e2a\u0e16\u0e34\u0e15\u0e34": 2612, "\u0e2d\u0e19\u0e38\u0e2a\u0e23\u0e13\u0e4c": 2613, "\u0e40\u0e27\u0e17\u0e22\u0e4c\u0e21\u0e19\u0e15": 2614, "\u0e2a\u0e30\u0e40\u0e17\u0e34\u0e19": 2615, "\u0e40\u0e04\u0e32\u0e19\u0e4c\u0e40\u0e15": 2616, "\u0e40\u0e14\u0e35\u0e4b\u0e22\u0e27": 2617, "\u0e42\u0e23\u0e04\u0e15\u0e34\u0e14\u0e15\u0e48\u0e2d": 2618, "\u0e41\u0e27\u0e4a": 2619, "\u0e1b\u0e0f\u0e34\u0e01\u0e34\u0e23\u0e34\u0e22\u0e32": 2620, "\u0e01\u0e1a\u0e40\u0e2b\u0e25\u0e32": 2621, "\u0e23\u0e30\u0e1a\u0e1a\u0e1b\u0e23\u0e30\u0e2a\u0e32\u0e17": 2622, "\u0e27\u0e31\u0e19\u0e1e\u0e24\u0e2b\u0e31\u0e2a": 2623, "\u0e04\u0e27\u0e48\u0e4d\u0e32": 2624, "\u0e1d\u0e31\u0e01\u0e1a\u0e31\u0e27": 2625, "\u0e1e\u0e25\u0e31\u0e07\u0e07\u0e32\u0e19": 2626, "\u0e2d\u0e14\u0e35\u0e15": 2627, "\u0e2a\u0e34\u0e07\u0e42\u0e15": 2628, "\u0e2d\u0e32\u0e2b\u0e23\u0e31\u0e1a": 2629, "\u0e40\u0e08\u0e15\u0e19\u0e32\u0e23\u0e21": 2630, "\u0e25\u0e30\u0e15\u0e34\u0e19": 2631, "\u0e40\u0e19\u0e37\u0e49\u0e2d\u0e40\u0e22\u0e37\u0e48\u0e2d": 2632, "\u0e0b\u0e32\u0e2e\u0e32\u0e23\u0e32": 2633, "\u0e15\u0e48\u0e2d\u0e2a\u0e39\u0e49": 2634, "\u0e1a\u0e2d\u0e14\u0e35\u0e49": 2635, "\u0e24\u0e17\u0e18\u0e34": 2636, "\u0e01\u0e25\u0e49\u0e32\u0e21\u0e40\u0e19\u0e37\u0e49\u0e2d": 2637, "\u0e1c\u0e08\u0e0d": 2638, "\u0e2a\u0e21\u0e21\u0e15\u0e34": 2639, "\u0e17\u0e41\u0e22\u0e07": 2640, "\u0e15\u0e27\u0e4c\u0e40\u0e25\u0e35\u0e49\u0e22\u0e07\u0e25\u0e39\u0e01\u0e14\u0e49\u0e27\u0e22": 2641, "\u0e17\u0e30\u0e25\u0e38": 2642, "\u0e2b\u0e21\u0e49\u0e2d\u0e41\u0e1b\u0e25\u0e07": 2643, "\u0e2a\u0e32\u0e21\u0e40\u0e2b\u0e25\u0e35\u0e48\u0e22\u0e21\u0e21\u0e38\u0e21": 2644, "\u0e2a\u0e34\u0e07\u0e2b\u0e4c": 2645, "\u0e2d\u0e35\u0e40\u0e21\u0e25": 2646, "\u0e08\u0e34\u0e49\u0e07\u0e08\u0e2d\u0e01": 2647, "\u0e2b\u0e34\u0e27\u0e32\u0e15": 2648, "\u0e2d\u0e31\u0e15\u0e23\u0e32\u0e2a\u0e48\u0e27\u0e19": 2649, "\u0e22\u0e38\u0e15\u0e34\u0e18\u0e23\u0e23\u0e21": 2650, "\u0e23\u0e39\u0e49\u0e08\u0e31\u0e01": 2651, "\u0e01\u0e25\u0e49\u0e2d\u0e07\u0e16\u0e48\u0e32\u0e22": 2652, "\u0e42\u0e04\u0e42\u0e25\u0e0d": 2653, "\u0e08\u0e07\u0e23\u0e31\u0e01": 2654, "\u0e2b\u0e35\u0e1a\u0e40\u0e1e\u0e25\u0e07": 2655, "\u0e17\u0e23\u0e07\u0e01\u0e25\u0e21": 2656, "\u0e15\u0e34\u0e14\u0e15\u0e32\u0e21": 2657, "\u0e1e\u0e34\u0e0b\u0e0b": 2658, "\u0e16\u0e38\u0e07\u0e22\u0e32\u0e07": 2659, "\u0e18\u0e23\u0e13\u0e35": 2660, "\u0e40\u0e2a\u0e21\u0e37\u0e2d\u0e19": 2661, "\u0e0b\u0e37\u0e49\u0e2d\u0e02\u0e32\u0e22": 2662, "\u0e2b\u0e25\u0e2d\u0e14\u0e40\u0e25\u0e37\u0e2d\u0e14": 2663, "\u0e41\u0e2d\u0e19\u0e15\u0e34": 2664, "\u0e17\u0e32\u0e22\u0e32\u0e17": 2665, "\u0e2d\u0e2d\u0e01\u0e01\u0e4d\u0e32\u0e25\u0e31\u0e07": 2666, "\u0e40\u0e0b\u0e32\u0e17\u0e4c": 2667, "\u0e40\u0e2b\u0e47\u0e19\u0e41\u0e01\u0e48": 2668, "\u0e42\u0e17\u0e23\u0e28\u0e31\u0e1e\u0e17\u0e4c": 2669, "\u0e04\u0e25\u0e49\u0e32\u0e22": 2670, "\u0e0a\u0e34\u0e07\u0e0a\u0e49\u0e32": 2671, "\u0e21\u0e31\u0e0a\u0e0a\u0e32": 2672, "\u0e25\u0e39\u0e01\u0e40\u0e02\u0e22": 2673, "\u0e02\u0e49\u0e32\u0e27\u0e40\u0e2b\u0e19\u0e35\u0e22\u0e27": 2674, "\u0e2b\u0e2d\u0e04\u0e2d\u0e22": 2675, "\u0e41\u0e1c\u0e48\u0e19\u0e14\u0e34\u0e19": 2676, "\u0e0b\u0e39\u0e14\u0e32\u0e19": 2677, "\u0e20\u0e23\u0e34\u0e22\u0e32": 2678, "\u0e2d\u0e22\u0e48\u0e32": 2679, "\u0e09\u0e35\u0e01": 2680, "\u0e21\u0e2b\u0e32\u0e2a\u0e21\u0e38\u0e17\u0e23": 2681, "\u0e2a\u0e35\u0e0a\u0e2d\u0e25\u0e4c": 2682, "\u0e0a\u0e2d\u0e25\u0e4c": 2683, "\u0e2a\u0e31\u0e19\u0e15\u0e30": 2684, "\u0e02\u0e2d\u0e1a\u0e04\u0e38\u0e13": 2685, "\u0e40\u0e22\u0e37\u0e48\u0e2d\u0e15\u0e32": 2686, "\u0e08\u0e31\u0e19\u0e17\u0e19\u0e4c": 2687, "\u0e40\u0e2b\u0e19\u0e35\u0e22\u0e27": 2688, "\u0e22\u0e38\u0e01\u0e23\u0e30\u0e1a\u0e31": 2689, "\u0e2b\u0e25\u0e38\u0e14": 2690, "\u0e21\u0e31\u0e01\u0e01\u0e30": 2691, "\u0e21\u0e35\u0e2d\u0e31\u0e19": 2692, "\u0e04\u0e4d\u0e32\u0e1e\u0e49\u0e2d\u0e07": 2693, "\u0e01\u0e4b\u0e27\u0e22": 2694, "\u0e41\u0e1a\u0e07\u0e01\u0e4c": 2695, "\u0e01\u0e25\u0e38\u0e48\u0e21\u0e14\u0e32\u0e27": 2696, "\u0e40\u0e01\u0e37\u0e49\u0e2d": 2697, "\u0e17\u0e32\u0e07\u0e40\u0e14\u0e34\u0e19": 2698, "\u0e40\u0e02\u0e49\u0e32\u0e40\u0e1d\u0e49\u0e32": 2699, "\u0e2b\u0e21\u0e2d\u0e07\u0e39": 2700, "\u0e25\u0e32\u0e22\u0e40\u0e0b\u0e47\u0e19": 2701, "\u0e2d\u0e31\u0e10": 2702, "\u0e2b\u0e31\u0e15\u0e16": 2703, "\u0e1e\u0e2b\u0e38": 2704, "\u0e15\u0e30\u0e44\u0e04\u0e23\u0e48": 2705, "\u0e1e\u0e23\u0e38\u0e48\u0e07": 2706, "\u0e19\u0e31\u0e01\u0e21\u0e27\u0e22": 2707, "\u0e41\u0e21\u0e48\u0e22\u0e32\u0e22": 2708, "\u0e04\u0e25\u0e38\u0e01": 2709, "\u0e40\u0e1e\u0e49\u0e2d": 2710, "\u0e08\u0e31\u0e01\u0e23\u0e22\u0e32\u0e19": 2711, "\u0e44\u0e21\u0e48\u0e23\u0e39\u0e49": 2712, "\u0e40\u0e01\u0e35\u0e4a\u0e22": 2713, "\u0e40\u0e21\u0e23\u0e38": 2714, "\u0e1b\u0e23\u0e32\u0e01\u0e0f": 2715, "\u0e27\u0e34\u0e0a\u0e0d": 2716, "\u0e2a\u0e38\u0e27\u0e23\u0e23\u0e13": 2717, "\u0e1e\u0e34\u0e01\u0e38\u0e25": 2718, "\u0e04\u0e15\u0e34\u0e19\u0e34\u0e22\u0e21": 2719, "\u0e40\u0e04\u0e23\u0e37\u0e48\u0e2d\u0e07\u0e2a\u0e39\u0e1a": 2720, "\u0e01\u0e31\u0e07\u0e2b\u0e31\u0e19": 2721, "\u0e1a\u0e49\u0e32\u0e19\u0e0a\u0e48\u0e2d\u0e07": 2722, "\u0e18\u0e39\u0e1b": 2723, "\u0e40\u0e0a\u0e35\u0e48\u0e22\u0e27": 2724, "\u0e04\u0e27\u0e32\u0e21\u0e2b\u0e25\u0e32\u0e01\u0e2b\u0e25\u0e32\u0e22": 2725, "\u0e40\u0e2a\u0e35\u0e48\u0e22\u0e07": 2726, "\u0e04\u0e48\u0e32\u0e04\u0e07": 2727, "\u0e42\u0e23\u0e07\u0e40\u0e23\u0e35\u0e22\u0e19": 2728, "\u0e1b\u0e25\u0e38\u0e01": 2729, "\u0e2d\u0e34\u0e40\u0e25\u0e47\u0e01": 2730, "\u0e40\u0e27\u0e2d\u0e23\u0e4c\u0e21\u0e2d": 2731, "\u0e01\u0e23\u0e30\u0e2b\u0e21\u0e48\u0e2d\u0e21": 2732, "\u0e2a\u0e27\u0e23\u0e23\u0e04": 2733, "\u0e1e\u0e23\u0e34\u0e01\u0e44\u0e17\u0e22": 2734, "\u0e2a\u0e15\u0e23\u0e2d": 2735, "\u0e2a\u0e31\u0e19\u0e15\u0e34": 2736, "\u0e17\u0e4d\u0e32\u0e19\u0e2d\u0e07": 2737, "\u0e1e\u0e23\u0e30\u0e19\u0e04\u0e23": 2738, "\u0e2a\u0e2b\u0e20\u0e32\u0e1e": 2739, "\u0e23\u0e32\u0e15\u0e23\u0e35": 2740, "\u0e2d\u0e32\u0e22\u0e38": 2741, "\u0e40\u0e0a\u0e25\u0e22": 2742, "\u0e01\u0e30\u0e2b\u0e25\u0e48\u0e4d\u0e32": 2743, "\u0e22\u0e39\u0e19\u0e34": 2744, "\u0e2d\u0e31\u0e15\u0e23\u0e32": 2745, "\u0e04\u0e23\u0e31\u0e49\u0e07": 2746, "\u0e01\u0e30\u0e15\u0e37\u0e2d\u0e23\u0e37\u0e2d": 2747, "\u0e04\u0e24\u0e2b": 2748, "\u0e41\u0e1b\u0e25\u0e20\u0e32\u0e29\u0e32": 2749, "\u0e2d\u0e19\u0e38\u0e20\u0e32\u0e04": 2750, "\u0e04\u0e30\u0e15\u0e30": 2751, "\u0e19\u0e31\u0e01\u0e41\u0e2a\u0e14\u0e07": 2752, "\u0e2b\u0e38\u0e1a": 2753, "\u0e2b\u0e23\u0e37\u0e2d": 2754, "\u0e41\u0e23\u0e47": 2755, "\u0e25\u0e4d\u0e32\u0e44\u0e2a\u0e49": 2756, "\u0e04\u0e27\u0e32\u0e21\u0e2a\u0e19\u0e38\u0e01": 2757, "\u0e20\u0e32\u0e27\u0e30": 2758, "\u0e17\u0e49\u0e2d\u0e07\u0e1f\u0e49\u0e32": 2759, "\u0e40\u0e25\u0e34\u0e28": 2760, "\u0e01\u0e32\u0e23\u0e40\u0e25\u0e37\u0e2d\u0e01\u0e15\u0e31\u0e49\u0e07": 2761, "\u0e1d\u0e49\u0e32\u0e22": 2762, "\u0e25\u0e39\u0e17\u0e35\u0e40": 2763, "\u0e41\u0e1a\u0e07\u0e04\u0e4c": 2764, "\u0e2d\u0e32\u0e19\u0e38\u0e20\u0e32": 2765, "\u0e43\u0e1a\u0e40\u0e25\u0e35\u0e49\u0e22\u0e07": 2766, "\u0e02\u0e13\u0e30": 2767, "\u0e40\u0e1b\u0e47\u0e19\u0e15\u0e49\u0e19": 2768, "\u0e23\u0e31\u0e1a\u0e1c\u0e34\u0e14": 2769, "\u0e15\u0e30\u0e44\u0e1a": 2770, "\u0e04\u0e35\u0e23\u0e35": 2771, "\u0e0a\u0e32\u0e27\u0e2a\u0e35": 2772, "\u0e20\u0e32\u0e29\u0e32\u0e15\u0e48\u0e32\u0e07": 2773, "\u0e1e\u0e34\u0e19\u0e31\u0e22": 2774, "\u0e40\u0e0b\u0e25\u0e25\u0e4c": 2775, "\u0e2a\u0e39\u0e15\u0e23": 2776, "\u0e40\u0e1a\u0e37\u0e48\u0e2d": 2777, "\u0e40\u0e08\u0e32\u0e30": 2778, "\u0e40\u0e2b\u0e32\u0e30": 2779, "\u0e2b\u0e22\u0e32\u0e1a": 2780, "\u0e1c\u0e49\u0e32\u0e1e\u0e31\u0e19": 2781, "\u0e2b\u0e22\u0e48\u0e2d\u0e21": 2782, "\u0e40\u0e22\u0e35\u0e48\u0e22\u0e27": 2783, "\u0e16\u0e49\u0e4d\u0e32": 2784, "\u0e09\u0e35\u0e14": 2785, "\u0e16\u0e48\u0e2d\u0e21": 2786, "\u0e01\u0e32\u0e23\u0e40\u0e01\u0e23\u0e07": 2787, "\u0e10\u0e34\u0e19": 2788, "\u0e40\u0e27\u0e47\u0e1a": 2789, "\u0e31\u0e04\u0e06": 2790, "\u0e1c\u0e39\u0e49\u0e01\u0e48\u0e2d": 2791, "\u0e1b\u0e23\u0e34\u0e49\u0e19": 2792, "\u0e2e\u0e48\u0e2d\u0e07": 2793, "\u0e42\u0e25\u0e48\u0e07": 2794, "\u0e2b\u0e19\u0e38\u0e48\u0e21": 2795, "\u0e42\u0e21\u0e42\u0e2b": 2796, "\u0e40\u0e0b\u0e19\u0e15": 2797, "\u0e44\u0e2b\u0e27\u0e49": 2798, "\u0e42\u0e08\u0e49": 2799, "\u0e2b\u0e49\u0e2d\u0e07\u0e43\u0e15\u0e49": 2800, "\u0e01\u0e32\u0e23\u0e2d\u0e38\u0e49\u0e21": 2801, "\u0e2d\u0e32\u0e1a\u0e39": 2802, "\u0e43\u0e04\u0e23": 2803, "\u0e01\u0e23\u0e21\u0e18\u0e23\u0e23\u0e21": 2804, "\u0e01\u0e25\u0e34\u0e49\u0e07": 2805, "\u0e40\u0e14\u0e25\u0e35": 2806, "\u0e1c\u0e39\u0e49\u0e1d\u0e36\u0e01": 2807, "\u0e1b\u0e49\u0e2d\u0e21": 2808, "\u0e44\u0e1e\u0e48": 2809, "\u0e01\u0e32\u0e23\u0e41\u0e02\u0e47\u0e07\u0e15\u0e31\u0e27": 2810, "\u0e27\u0e32\u0e23\u0e2a\u0e32\u0e23": 2811, "\u0e40\u0e2b\u0e22\u0e35\u0e22\u0e14": 2812, "\u0e1b\u0e23\u0e30\u0e08\u0e38": 2813, "\u0e2d\u0e32\u0e22\u0e38\u0e23": 2814, "\u0e16\u0e16": 2815, "\u0e0a\u0e38\u0e1a": 2816, "\u0e04\u0e27\u0e32\u0e21\u0e40\u0e2e\u0e07": 2817, "\u0e19\u0e49\u0e4d\u0e32\u0e2a\u0e49\u0e21": 2818, "\u0e2a\u0e2b\u0e31\u0e2a": 2819, "\u0e41\u0e01\u0e49\u0e27\u0e15\u0e32": 2820, "\u0e40\u0e2d\u0e32\u0e43\u0e08": 2821, "\u0e40\u0e04\u0e23\u0e37\u0e48\u0e2d\u0e07\u0e0a\u0e48\u0e27\u0e22": 2822, "\u0e04\u0e34\u0e23\u0e34": 2823, "\u0e1e\u0e38\u0e48\u0e07": 2824, "\u0e40\u0e1c\u0e48\u0e32": 2825, "\u0e40\u0e01\u0e37\u0e2d\u0e01": 2826, "\u0e42\u0e1e\u0e49\u0e19": 2827, "\u0e34\u0e29\u0e31": 2828, "\u0e40\u0e1b\u0e25\u0e37\u0e2d\u0e01": 2829, "\u0e01\u0e23\u0e30\u0e2a\u0e27\u0e22": 2830, "\u0e40\u0e04\u0e23\u0e37\u0e48\u0e2d\u0e07\u0e08\u0e31\u0e01\u0e23": 2831, "\u0e04\u0e19\u0e17\u0e4d\u0e32": 2832, "\u0e1c\u0e39\u0e49\u0e41\u0e17\u0e19": 2833, "\u0e40\u0e21\u0e49\u0e19": 2834, "\u0e40\u0e01\u0e25\u0e49\u0e32": 2835, "\u0e1b\u0e38\u0e23\u0e30": 2836, "\u0e14\u0e2d\u0e01\u0e1f\u0e49\u0e32": 2837, "\u0e41\u0e1f\u0e23\u0e19": 2838, "\u0e40\u0e25\u0e47\u0e1a\u0e21\u0e37\u0e2d": 2839, "\u0e41\u0e1c\u0e07": 2840, "\u0e0a\u0e32\u0e15\u0e34\u0e1e\u0e31\u0e19\u0e18\u0e38\u0e4c": 2841, "\u0e44\u0e21\u0e48\u0e21\u0e35": 2842, "\u0e01\u0e32\u0e23\u0e1b\u0e23\u0e30\u0e2b\u0e32\u0e23": 2843, "\u0e22\u0e32\u0e41\u0e01\u0e49": 2844, "\u0e2b\u0e21\u0e31\u0e48\u0e19": 2845, "\u0e01\u0e4a\u0e2d\u0e01": 2846, "\u0e41\u0e16\u0e1a": 2847, "\u0e40\u0e2a\u0e37\u0e49\u0e2d\u0e01\u0e31\u0e19": 2848, "\u0e16\u0e49\u0e2d\u0e22": 2849, "\u0e01\u0e36\u0e4b": 2850, "\u0e21\u0e30\u0e42\u0e23\u0e07": 2851, "\u0e44\u0e2d\u0e42\u0e2d": 2852, "\u0e04\u0e24\u0e01": 2853, "\u0e2b\u0e49\u0e27\u0e07": 2854, "\u0e2a\u0e31\u0e15\u0e27\u0e4c\u0e01\u0e34\u0e19": 2855, "\u0e25\u0e39\u0e01\u0e40\u0e2a\u0e37\u0e2d": 2856, "\u0e15\u0e23\u0e27\u0e08": 2857, "\u0e17\u0e35\u0e48\u0e19\u0e2d\u0e19": 2858, "\u0e2a\u0e21\u0e38\u0e19": 2859, "\u0e40\u0e28\u0e23\u0e29\u0e10\u0e28\u0e32\u0e2a\u0e15\u0e23\u0e4c": 2860, "\u0e21\u0e30\u0e41\u0e21": 2861, "\u0e17\u0e23\u0e0a\u0e19": 2862, "\u0e40\u0e25\u0e2d\u0e30\u0e40": 2863, "\u0e2d\u0e48\u0e32\u0e27": 2864, "\u0e1d\u0e48\u0e32\u0e22": 2865, "\u0e01\u0e34\u0e19\u0e02\u0e49\u0e32\u0e27": 2866, "\u0e1b\u0e32\u0e01\u0e27\u0e48\u0e32": 2867, "\u0e04\u0e27\u0e32\u0e21\u0e40\u0e2b\u0e35\u0e49\u0e22": 2868, "\u0e09\u0e35\u0e48": 2869, "\u0e01\u0e32\u0e23\u0e41\u0e08\u0e49\u0e07": 2870, "\u0e1b\u0e23\u0e30\u0e01\u0e32\u0e22": 2871, "\u0e40\u0e01\u0e23\u0e35\u0e22\u0e07": 2872, "\u0e01\u0e25\u0e49\u0e32\u0e21": 2873, "\u0e2a\u0e49\u0e2d\u0e21": 2874, "\u0e08\u0e31\u0e01\u0e23\u0e27\u0e32": 2875, "\u0e2b\u0e32\u0e07\u0e40\u0e2a\u0e37\u0e2d\u0e40": 2876, "\u0e40\u0e2d\u0e01\u0e2a\u0e32\u0e23": 2877, "\u0e02\u0e27\u0e32\u0e01": 2878, "\u0e42\u0e27\u0e25": 2879, "\u0e04\u0e27\u0e32\u0e21\u0e01\u0e14": 2880, "\u0e19\u0e49\u0e4d\u0e32\u0e40\u0e15\u0e49\u0e32": 2881, "\u0e17\u0e2d\u0e07\u0e04\u0e4d\u0e32": 2882, "\u0e19\u0e48\u0e32\u0e2a\u0e19": 2883, "\u0e2d\u0e32\u0e2a\u0e32": 2884, "\u0e15\u0e37\u0e48\u0e19": 2885, "\u0e2e\u0e34\u0e15": 2886, "\u0e40\u0e2e\u0e07": 2887, "\u0e08\u0e23\u0e23\u0e22\u0e32": 2888, "\u0e19\u0e49\u0e4d\u0e32\u0e1e\u0e23\u0e34\u0e01": 2889, "\u0e2b\u0e49\u0e2d": 2890, "\u0e0a\u0e48\u0e32": 2891, "\u0e27\u0e23\u0e23\u0e04": 2892, "\u0e23\u0e27\u0e1a": 2893, "\u0e28\u0e38": 2894, "\u0e27\u0e32\u0e19\u0e23": 2895, "\u0e44\u0e2a\u0e22": 2896, "\u0e01\u0e32\u0e23\u0e41\u0e16": 2897, "\u0e1c\u0e39\u0e49\u0e23\u0e49\u0e32\u0e22": 2898, "\u0e1b\u0e23\u0e30\u0e08\u0e4d\u0e32": 2899, "\u0e1e\u0e49\u0e2d\u0e07": 2900, "\u0e40\u0e1a\u0e32\u0e30": 2901, "\u0e22\u0e38\u0e27": 2902, "\u0e01\u0e32\u0e23\u0e40\u0e1b\u0e25\u0e35\u0e48\u0e22\u0e19": 2903, "\u0e2d\u0e47\u0e21": 2904, "\u0e40\u0e0b\u0e19\u0e15\u0e4c": 2905, "\u0e22\u0e38\u0e48\u0e07\u0e40\u0e2b": 2906, "\u0e1d\u0e31\u0e01": 2907, "\u0e04\u0e27\u0e32\u0e21\u0e1c\u0e34\u0e14": 2908, "\u0e01\u0e32\u0e23\u0e09\u0e49\u0e2d": 2909, "\u0e01\u0e32\u0e23\u0e40\u0e1a\u0e34\u0e01": 2910, "\u0e1c\u0e2a\u0e21": 2911, "\u0e42\u0e14\u0e21\u0e34": 2912, "\u0e01\u0e32\u0e23\u0e17\u0e49\u0e32": 2913, "\u0e1b\u0e23\u0e30\u0e2a\u0e1a": 2914, "\u0e0b\u0e35\u0e40\u0e23\u0e35\u0e22": 2915, "\u0e1b\u0e25\u0e49\u0e19": 2916, "\u0e0b\u0e48\u0e2d\u0e07": 2917, "\u0e04\u0e23\u0e36": 2918, "\u0e04\u0e27\u0e32\u0e21\u0e23\u0e39\u0e49": 2919, "\u0e21\u0e32\u0e40\u0e25": 2920, "\u0e14\u0e34\u0e49\u0e19": 2921, "\u0e44\u0e14\u0e49\u0e2b\u0e19\u0e49\u0e32": 2922, "\u0e41\u0e27\u0e27": 2923, "\u0e06\u0e32": 2924, "\u0e01\u0e32\u0e23\u0e23\u0e30\u0e40\u0e2b": 2925, "\u0e40\u0e08\u0e49\u0e32\u0e01\u0e23\u0e23\u0e21": 2926, "\u0e2d\u0e19\u0e38\u0e01\u0e23\u0e21": 2927, "\u0e16\u0e25\u0e38\u0e07": 2928, "\u0e2b\u0e25\u0e2d\u0e01": 2929, "\u0e2a\u0e27\u0e31\u0e2a\u0e14\u0e35": 2930, "\u0e40\u0e2a\u0e32\u0e23\u0e4c": 2931, "\u0e01\u0e32\u0e23\u0e1c\u0e39\u0e01": 2932, "\u0e1b\u0e38\u0e48\u0e21": 2933, "\u0e01\u0e23\u0e34\u0e48\u0e07": 2934, "\u0e0a\u0e27\u0e14": 2935, "\u0e01\u0e32\u0e23\u0e01\u0e48\u0e2d": 2936, "\u0e15\u0e38\u0e49\u0e07": 2937, "\u0e19\u0e15\u0e23\u0e35": 2938, "\u0e40\u0e2e\u0e01": 2939, "\u0e01\u0e32\u0e23\u0e1b\u0e49\u0e2d\u0e07": 2940, "\u0e27\u0e34\u0e27\u0e32": 2941, "\u0e41\u0e04\u0e23\u0e30": 2942, "\u0e2a\u0e32\u0e22\u0e44\u0e1f": 2943, "\u0e14\u0e48\u0e32\u0e19": 2944, "\u0e2d\u0e34\u0e19\u0e17\u0e23\u0e4c": 2945, "\u0e2b\u0e34\u0e21": 2946, "\u0e1a\u0e31\u0e04": 2947, "\u0e17\u0e49\u0e32\u0e27": 2948, "\u0e2d\u0e42\u0e2b": 2949, "\u0e04\u0e27\u0e32\u0e21\u0e22\u0e32\u0e27": 2950, "\u0e1d\u0e48\u0e32": 2951, "\u0e40\u0e1e\u0e25\u0e34\u0e14": 2952, "\u0e42\u0e1e\u0e23\u0e07": 2953, "\u0e17\u0e23\u0e32\u0e1a": 2954, "\u0e1e\u0e25\u0e34\u0e01": 2955, "\u0e2b\u0e31\u0e27\u0e2b\u0e19\u0e49\u0e32": 2956, "\u0e42\u0e2e\u0e25": 2957, "\u0e41\u0e1b\u0e30": 2958, "\u0e40\u0e14\u0e35\u0e22\u0e23": 2959, "\u0e01\u0e32\u0e23\u0e08\u0e1a": 2960, "\u0e01\u0e32\u0e23\u0e06\u0e48\u0e32": 2961, "\u0e19\u0e49\u0e4d\u0e32\u0e1b\u0e25\u0e32": 2962, "\u0e1a\u0e35\u0e49": 2963, "\u0e23\u0e31\u0e15\u0e34": 2964, "\u0e01\u0e32\u0e23\u0e25\u0e49\u0e21": 2965, "\u0e17\u0e19\u0e32\u0e22": 2966, "\u0e1e\u0e24\u0e15\u0e34": 2967, "\u0e2a\u0e23\u0e49\u0e2d\u0e22": 2968, "\u0e2b\u0e21\u0e39\u0e2b": 2969, "\u0e17\u0e39\u0e25": 2970, "\u0e1a\u0e23\u0e23\u0e13\u0e32\u0e23\u0e31\u0e01\u0e29": 2971, "\u0e01\u0e32\u0e23\u0e40\u0e23\u0e35\u0e22\u0e19": 2972, "\u0e41\u0e22\u0e49\u0e21": 2973, "\u0e2d\u0e35\u0e49": 2974, "\u0e09\u0e25\u0e32\u0e21": 2975, "\u0e41\u0e2b\u0e27\u0e01": 2976, "\u0e01\u0e32\u0e23\u0e23\u0e35\u0e14": 2977, "\u0e2b\u0e19\u0e2d\u0e07": 2978, "\u0e21\u0e32\u0e25\u0e32": 2979, "\u0e04\u0e27\u0e32\u0e21\u0e1a\u0e23\u0e34": 2980, "\u0e1e\u0e25\u0e31\u0e1a\u0e1e\u0e25": 2981, "\u0e1a\u0e49\u0e2d\u0e07": 2982, "\u0e21\u0e1e\u0e39": 2983, "\u0e23\u0e23\u0e08": 2984, "\u0e40\u0e21\u0e49\u0e32": 2985, "\u0e25\u0e38\u0e07": 2986, "\u0e40\u0e23\u0e34": 2987, "\u0e04\u0e37\u0e2d": 2988, "\u0e1f\u0e32\u0e14": 2989, "\u0e01\u0e32\u0e23\u0e23\u0e48\u0e27\u0e21": 2990, "\u0e2a\u0e01\u0e32\u0e23\u0e4c": 2991, "\u0e42\u0e25\u0e07": 2992, "\u0e40\u0e02\u0e15": 2993, "\u0e2b\u0e19\u0e49\u0e32\u0e17\u0e35\u0e48": 2994, "\u0e2a\u0e27\u0e30": 2995, "\u0e2a\u0e01\u0e35": 2996, "\u0e14\u0e37\u0e48\u0e21": 2997, "\u0e1b\u0e23\u0e30\u0e40\u0e08": 2998, "\u0e01\u0e32\u0e23\u0e2b\u0e21\u0e14": 2999, "\u0e41\u0e2d\u0e2a": 3000, "\u0e1b\u0e27\u0e22": 3001, "\u0e1a\u0e23\u0e23\u0e13\u0e32": 3002, "\u0e42\u0e1a\u0e23": 3003, "\u0e1a\u0e32\u0e23\u0e4c": 3004, "\u0e04\u0e23\u0e32\u0e21": 3005, "\u0e15\u0e23\u0e32\u0e2a\u0e32\u0e23": 3006, "\u0e01\u0e32\u0e23\u0e1b\u0e0f\u0e34": 3007, "\u0e41\u0e01\u0e27": 3008, "\u0e40\u0e23\u0e35\u0e22\u0e1a": 3009, "\u0e19\u0e49\u0e4d\u0e32\u0e22\u0e32": 3010, "\u0e21\u0e31\u0e48\u0e19\u0e04\u0e07": 3011, "\u0e2d\u0e48\u0e32\u0e07": 3012, "\u0e01\u0e32\u0e23\u0e0a\u0e31\u0e01": 3013, "\u0e42\u0e23\u0e22": 3014, "\u0e04\u0e32\u0e23\u0e4c\u0e1a": 3015, "\u0e01\u0e30\u0e17\u0e31": 3016, "\u0e42\u0e0b\u0e21": 3017, "\u0e2a\u0e39\u0e48": 3018, "\u0e40\u0e25\u0e02\u0e32": 3019, "\u0e23\u0e30\u0e41": 3020, "\u0e40\u0e1c\u0e37\u0e2d": 3021, "\u0e15\u0e23\u0e30\u0e01\u0e23\u0e49": 3022, "\u0e24\u0e17": 3023, "\u0e11\u0e32\u0e2b": 3024, "\u0e21\u0e48\u0e27\u0e07": 3025, "\u0e04\u0e23\u0e31\u0e1a": 3026, "\u0e01\u0e32\u0e23\u0e44\u0e14\u0e49": 3027, "\u0e39\u0e1f": 3028, "\u0e2b\u0e19\u0e49\u0e32\u0e1c\u0e32": 3029, "\u0e40\u0e09\u0e32": 3030, "\u0e08\u0e32\u0e23\u0e30": 3031, "\u0e1e\u0e30\u0e22\u0e39": 3032, "\u0e02\u0e32\u0e25": 3033, "\u0e40\u0e01\u0e35\u0e22": 3034, "\u0e23\u0e32\u0e21\u0e32": 3035, "\u0e40\u0e1e\u0e2a": 3036, "\u0e01\u0e32\u0e23\u0e15\u0e48\u0e2d": 3037, "\u0e01\u0e32\u0e23\u0e40\u0e25\u0e48\u0e19": 3038, "\u0e1b\u0e25\u0e39\u0e01": 3039, "\u0e1a\u0e31\u0e1a": 3040, "\u0e1a\u0e48\u0e21": 3041, "\u0e1e\u0e25\u0e35": 3042, "\u0e01\u0e32\u0e23\u0e43\u0e0a\u0e49": 3043, "\u0e08\u0e2d\u0e21": 3044, "\u0e2b\u0e22\u0e27": 3045, "\u0e4d\u0e32\u0e2b\u0e19": 3046, "\u0e01\u0e39\u0e49": 3047, "\u0e48\u0e40\u0e01": 3048, "\u0e20\u0e32\u0e29": 3049, "\u0e21\u0e31\u0e48\u0e07": 3050, "\u0e40\u0e01\u0e47": 3051, "\u0e41\u0e0a": 3052, "\u0e2a\u0e2d\u0e22": 3053, "\u0e08\u0e14\u0e08": 3054, "\u0e0a\u0e32\u0e15": 3055, "\u0e01\u0e32\u0e23\u0e2a\u0e31\u0e21": 3056, "\u0e19\u0e35\u0e2d": 3057, "\u0e40\u0e2d\u0e30": 3058, "\u0e42\u0e0b\u0e25": 3059, "\u0e01\u0e44\u0e17": 3060, "\u0e40\u0e1f\u0e34\u0e23\u0e4c": 3061, "\u0e41\u0e1b\u0e49": 3062, "\u0e40\u0e28": 3063, "\u0e01\u0e23\u0e30\u0e0b": 3064, "\u0e34\u0e25\u0e34\u0e1b": 3065, "\u0e01\u0e32\u0e23\u0e01\u0e34\u0e19": 3066, "\u0e4c\u0e01\u0e34\u0e19": 3067, "\u0e40\u0e1e\u0e0a": 3068, "\u0e32\u0e40\u0e25\u0e35\u0e22": 3069, "\u0e25\u0e34\u0e02": 3070, "\u0e31\u0e19\u0e14\u0e32": 3071, "\u0e4c\u0e1f": 3072, "\u0e2d\u0e15": 3073, "\u0e01\u0e32\u0e23\u0e25\u0e30": 3074, "\u0e2a\u0e4d\u0e32\u0e40": 3075, "\u0e2d\u0e1e": 3076, "\u0e2b\u0e19\u0e38\u0e19": 3077, "\u0e07\u0e43\u0e15\u0e49": 3078, "\u0e1b\u0e23\u0e30\u0e21\u0e27\u0e25": 3079, "\u0e40\u0e21\u0e48\u0e19": 3080, "\u0e04\u0e27\u0e32\u0e21\u0e40\u0e2a\u0e35\u0e22": 3081, "\u0e44\u0e21\u0e49\u0e08": 3082, "\u0e32\u0e21\u0e31\u0e0d": 3083, "\u0e01\u0e32\u0e1a": 3084, "\u0e1c\u0e39\u0e49\u0e1b": 3085, "\u0e19\u0e32\u0e19\u0e32": 3086, "\u0e1e\u0e2d\u0e01": 3087, "\u0e32\u0e23\u0e17": 3088, "\u0e21\u0e35\u0e14": 3089, "\u0e01\u0e32\u0e23\u0e1a\u0e23\u0e34": 3090, "\u0e41\u0e0b\u0e47": 3091, "\u0e01\u0e32\u0e23\u0e25\u0e32": 3092, "\u0e22\u0e31\u0e01": 3093, "\u0e2a\u0e19\u0e21": 3094, "\u0e15\u0e34\u0e2a": 3095, "\u0e01\u0e32\u0e23\u0e41\u0e17": 3096, "\u0e2d\u0e31\u0e28\u0e27\u0e34\u0e19": 3097, "\u0e21\u0e19\u0e32": 3098, "\u0e15\u0e4a\u0e30": 3099, "\u0e2a\u0e20\u0e32\u0e1e": 3100, "\u0e31\u0e21\u0e21": 3101, "\u0e04\u0e27\u0e32\u0e21\u0e0a": 3102, "\u0e1a\u0e23\u0e34\u0e1a": 3103, "\u0e2b\u0e25\u0e48": 3104, "\u0e08\u0e32\u0e21": 3105, "\u0e2a\u0e42\u0e25\u0e27": 3106, "\u0e19\u0e49\u0e4d\u0e32\u0e08": 3107, "\u0e21\u0e30\u0e15": 3108, "\u0e2d\u0e34\u0e15": 3109, "\u0e2a\u0e21\u0e35": 3110, "\u0e41\u0e1b\u0e23\u0e07": 3111, "\u0e2d\u0e38\u0e1b\u0e01": 3112, "\u0e04\u0e25\u0e32\u0e14": 3113, "\u0e01\u0e01\u0e38": 3114, "\u0e1a\u0e35\u0e1a\u0e04": 3115, "\u0e01\u0e2a\u0e34\u0e01\u0e23": 3116, "\u0e23\u0e49\u0e2d\u0e07\u0e40\u0e23\u0e35\u0e22": 3117, "\u0e2a\u0e39\u0e49": 3118, "\u0e1b\u0e17": 3119, "\u0e14\u0e39\u0e14": 3120, "\u0e0b\u0e35\u0e01": 3121, "\u0e2d\u0e2d\u0e21": 3122, "\u0e40\u0e25\u0e37\u0e2d\u0e14\u0e19": 3123, "\u0e2d\u0e19\u0e38\u0e23\u0e31\u0e01\u0e29": 3124, "\u0e27\u0e22\u0e32": 3125, "\u0e0a\u0e2d\u0e1b": 3126, "\u0e40\u0e04\u0e2d\u0e23\u0e4c": 3127, "\u0e44\u0e21\u0e48\u0e04": 3128, "\u0e40\u0e2a\u0e37\u0e2d\u0e01": 3129, "\u0e08\u0e27\u0e1a": 3130, "\u0e47\u0e2d\u0e1a": 3131, "\u0e18\u0e34\u0e1a": 3132, "\u0e01\u0e2d\u0e14": 3133, "\u0e1c\u0e17": 3134, "\u0e32\u0e2a\u0e19": 3135, "\u0e17\u0e4d\u0e32\u0e43\u0e2b\u0e49": 3136, "\u0e08\u0e34\u0e4b": 3137, "\u0e2d\u0e34\u0e40": 3138, "\u0e2d\u0e2d\u0e2a\u0e42": 3139, "\u0e2a\u0e32\u0e23\u0e32": 3140, "\u0e04\u0e23\u0e27": 3141, "\u0e04\u0e27\u0e32\u0e21\u0e1b": 3142, "\u0e32\u0e19\u0e22\u0e19": 3143, "\u0e04\u0e27\u0e32\u0e21\u0e43\u0e08": 3144, "\u0e0a\u0e34\u0e07\u0e0a\u0e31": 3145, "\u0e2d\u0e34\u0e19\u0e1f": 3146, "\u0e2b\u0e21\u0e32\u0e22\u0e1b": 3147, "\u0e2d\u0e34\u0e19\u0e17\u0e23\u0e35": 3148, "\u0e1a\u0e25\u0e47\u0e2d\u0e01": 3149, "\u0e32\u0e18\u0e34": 3150, "\u0e1e\u0e39\u0e19": 3151, "\u0e17\u0e30\u0e40\u0e25\u0e2a\u0e32": 3152, "\u0e2a\u0e30\u0e1a": 3153, "\u0e32\u0e0d\u0e32\u0e2a\u0e34\u0e17\u0e18\u0e34": 3154, "\u0e40\u0e27\u0e15": 3155, "\u0e4d\u0e32\u0e40\u0e20": 3156, "\u0e01\u0e32\u0e23\u0e01\u0e31\u0e14": 3157, "\u0e42\u0e2b\u0e23": 3158, "\u0e41\u0e1a\u0e48\u0e07": 3159, "\u0e40\u0e07\u0e35\u0e48\u0e22": 3160, "\u0e2a\u0e07\u0e1a": 3161, "\u0e04\u0e2d\u0e0b\u0e2d": 3162, "\u0e34\u0e25\u0e35": 3163, "\u0e40\u0e1b\u0e35\u0e22\u0e01": 3164, "\u0e21\u0e48\u0e2d\u0e07": 3165, "\u0e2b\u0e34\u0e27": 3166, "\u0e2e\u0e31\u0e14": 3167, "\u0e40\u0e1f\u0e2a": 3168, "\u0e01\u0e32\u0e23\u0e1c\u0e07": 3169, "\u0e40\u0e15\u0e47": 3170, "\u0e01\u0e47\u0e2d": 3171, "\u0e1b\u0e23\u0e30\u0e2b\u0e32\u0e23": 3172, "\u0e1e\u0e38\u0e17\u0e18\u0e28": 3173, "\u0e1b\u0e23\u0e30\u0e40\u0e14\u0e34": 3174, "\u0e34\u0e08\u0e09\u0e32": 3175, "\u0e14\u0e2d\u0e21": 3176, "\u0e32\u0e21\u0e32": 3177, "\u0e2a\u0e31\u0e17\u0e2d\u0e31\u0e01\u0e29\u0e23": 3178, "\u0e41\u0e2a\u0e19": 3179, "\u0e23\u0e4c\u0e14": 3180, "\u0e41\u0e21\u0e49\u0e27": 3181, "\u0e21\u0e48\u0e32\u0e19": 3182, "\u0e15\u0e34\u0e19": 3183, "\u0e40\u0e1e\u0e14": 3184, "\u0e08\u0e31\u0e4a": 3185, "\u0e19\u0e32\u0e19": 3186, "\u0e35\u0e15\u0e32": 3187, "\u0e22\u0e48\u0e32\u0e07": 3188, "\u0e17\u0e34\u0e27\u0e32": 3189, "\u0e2a\u0e34\u0e07\u0e04": 3190, "\u0e31\u0e13": 3191, "\u0e40\u0e0b\u0e47\u0e01": 3192, "\u0e41\u0e08\u0e47\u0e01": 3193, "\u0e1a\u0e23\u0e32\u0e0b": 3194, "\u0e28\u0e21\u0e35": 3195, "\u0e04\u0e27\u0e32\u0e21\u0e17\u0e38": 3196, "\u0e02\u0e21": 3197, "\u0e1e\u0e23\u0e30\u0e01": 3198, "\u0e34\u0e23\u0e4c\u0e01": 3199, "\u0e40\u0e2a\u0e23\u0e34": 3200, "\u0e2e\u0e32\u0e23\u0e4c": 3201, "\u0e1c\u0e49\u0e32\u0e19\u0e38\u0e48": 3202, "\u0e2d\u0e31\u0e28": 3203, "\u0e2b\u0e49": 3204, "\u0e1b\u0e35\u0e2b\u0e19": 3205, "\u0e30\u0e2b\u0e21": 3206, "\u0e23\u0e35\u0e48": 3207, "\u0e01\u0e01": 3208, "\u0e40\u0e2b\u0e21\u0e47\u0e19": 3209, "\u0e0a\u0e30\u0e21": 3210, "\u0e35\u0e40\u0e23\u0e35\u0e22": 3211, "\u0e2a\u0e30\u0e01": 3212, "\u0e4a\u0e27": 3213, "\u0e23\u0e21\u0e23\u0e32\u0e0a\u0e32": 3214, "\u0e40\u0e0a\u0e22": 3215, "\u0e01\u0e32\u0e23\u0e40\u0e2a": 3216, "\u0e41\u0e15\u0e07": 3217, "\u0e09\u0e32": 3218, "\u0e19\u0e49\u0e4d\u0e32\u0e21\u0e19\u0e15": 3219, "\u0e1a\u0e32\u0e23": 3220, "\u0e28\u0e32\u0e2a": 3221, "\u0e04\u0e25\u0e34": 3222, "\u0e15\u0e32\u0e2a": 3223, "\u0e1e\u0e48": 3224, "\u0e31\u0e07\u0e07\u0e32": 3225, "\u0e44\u0e2d\u0e14": 3226, "\u0e07\u0e27\u0e07": 3227, "\u0e27\u0e32\u0e2a\u0e38\u0e01": 3228, "\u0e40\u0e02\u0e19": 3229, "\u0e22\u0e01\u0e23\u0e23\u0e21": 3230, "\u0e40\u0e1a\u0e34\u0e23\u0e4c": 3231, "\u0e01\u0e32\u0e23\u0e04\u0e27": 3232, "\u0e01\u0e32\u0e23\u0e1b\u0e01": 3233, "\u0e27\u0e34\u0e20\u0e32\u0e04": 3234, "\u0e08\u0e01": 3235, "\u0e1b\u0e23\u0e31\u0e2a": 3236, "\u0e01\u0e29": 3237, "\u0e1a\u0e48\u0e2d\u0e19\u0e49\u0e4d\u0e32": 3238, "\u0e40\u0e15\u0e4b": 3239, "\u0e40\u0e22\u0e47": 3240, "\u0e31\u0e17\u0e18": 3241, "\u0e04\u0e40\u0e19": 3242, "\u0e42\u0e09": 3243, "\u0e34\u0e15\u0e34": 3244, "\u0e02\u0e25\u0e38": 3245, "\u0e2b\u0e31\u0e27\u0e41": 3246, "\u0e28\u0e32": 3247, "\u0e1a\u0e31\u0e25\u0e25": 3248, "\u0e27\u0e34\u0e40\u0e28\u0e29\u0e13": 3249, "\u0e40\u0e21\u0e2d": 3250, "\u0e16\u0e49\u0e27": 3251, "\u0e1e\u0e31\u0e17": 3252, "\u0e2b\u0e21\u0e01": 3253, "\u0e25\u0e32\u0e08": 3254, "\u0e49\u0e27": 3255, "\u0e15\u0e23\u0e35\u0e28": 3256, "\u0e04\u0e27\u0e32\u0e21\u0e22": 3257, "\u0e2d\u0e4b\u0e2d": 3258, "\u0e15\u0e38\u0e01\u0e32\u0e23": 3259, "\u0e44\u0e21\u0e48\u0e2b\u0e25\u0e31": 3260, "\u0e42\u0e2d\u0e4a": 3261, "\u0e23\u0e35\u0e22\u0e4c": 3262, "\u0e40\u0e01\u0e23\u0e47": 3263, "\u0e23\u0e21\u0e32\u0e20\u0e34": 3264, "\u0e42\u0e21\u0e19": 3265, "\u0e40\u0e23\u0e49\u0e32": 3266, "\u0e23\u0e2d\u0e21": 3267, "\u0e2d\u0e32\u0e17\u0e34\u0e15\u0e22\u0e4c": 3268, "\u0e41\u0e1a\u0e07": 3269, "\u0e41\u0e07": 3270, "\u0e40\u0e23\u0e14": 3271, "\u0e2b\u0e21\u0e39\u0e41\u0e14": 3272, "\u0e41\u0e04\u0e1b": 3273, "\u0e1a\u0e2b\u0e32\u0e22": 3274, "\u0e23\u0e22\u0e4c": 3275, "\u0e1a\u0e48\u0e2d\u0e19": 3276, "\u0e40\u0e08\u0e25": 3277, "\u0e04\u0e23\u0e34\u0e2a\u0e15\u0e4c\u0e28": 3278, "\u0e34\u0e28\u0e27": 3279, "\u0e2a\u0e1b": 3280, "\u0e01\u0e32\u0e23\u0e1a\u0e27": 3281, "\u0e40\u0e17\u0e23\u0e35\u0e22": 3282, "\u0e19\u0e31\u0e01\u0e2a\u0e40\u0e01": 3283, "\u0e15\u0e14": 3284, "\u0e08\u0e31": 3285, "\u0e01\u0e31\u0e49\u0e19": 3286, "\u0e2d\u0e2d\u0e23\u0e4c\u0e40": 3287, "\u0e19\u0e49\u0e4d\u0e32\u0e21\u0e30": 3288, "\u0e42\u0e2b\u0e19\u0e01": 3289, "\u0e38\u0e15": 3290, "\u0e0a\u0e37\u0e48\u0e19\u0e0a": 3291, "\u0e40\u0e01\u0e25\u0e35\u0e22": 3292, "\u0e34\u0e22\u0e32": 3293, "\u0e01\u0e27\u0e22\u0e08": 3294, "\u0e08\u0e38\u0e25\u0e0a\u0e35": 3295, "\u0e25\u0e32\u0e2a": 3296, "\u0e25\u0e4d\u0e32\u0e43": 3297, "\u0e35\u0e40\u0e25\u0e35\u0e22": 3298, "\u0e2b\u0e31\u0e01": 3299, "\u0e42\u0e21\u0e07": 3300, "\u0e40\u0e2b\u0e22\u0e35\u0e22": 3301, "\u0e41\u0e2b\u0e19": 3302, "\u0e23\u0e31\u0e01\u0e29\u0e32\u0e01\u0e32\u0e23": 3303, "\u0e01\u0e32\u0e23\u0e1c\u0e48\u0e32": 3304, "\u0e02\u0e31\u0e49\u0e19": 3305, "\u0e42\u0e01\u0e25": 3306, "\u0e1a\u0e25\u0e31": 3307, "\u0e21\u0e2b\u0e32\u0e40": 3308, "\u0e01\u0e32\u0e23\u0e1b\u0e23\u0e30\u0e40": 3309, "\u0e30\u0e17": 3310, "\u0e1e\u0e23\u0e23\u0e14": 3311, "\u0e37\u0e49\u0e2d\u0e19": 3312, "\u0e19\u0e38\u0e21": 3313, "\u0e40\u0e08\u0e23\u0e34\u0e0d\u0e1e": 3314, "\u0e04\u0e25\u0e38\u0e21": 3315, "\u0e02\u0e2d\u0e19": 3316, "\u0e01\u0e15": 3317, "\u0e41\u0e01\u0e25": 3318, "\u0e2a\u0e48\u0e2d\u0e07": 3319, "\u0e15\u0e27": 3320, "\u0e01\u0e29\u0e35\u0e23\u0e32": 3321, "\u0e41\u0e27\u0e48": 3322, "\u0e21\u0e31\u0e2a\u0e22": 3323, "\u0e42\u0e01\u0e0f": 3324, "\u0e04\u0e1a\u0e2d\u0e25": 3325, "\u0e2d\u0e34\u0e4a": 3326, "\u0e2a\u0e35\u0e2a\u0e23\u0e23": 3327, "\u0e4c\u0e21": 3328, "\u0e2a\u0e27\u0e31\u0e2a": 3329, "\u0e08\u0e34\u0e1a": 3330, "\u0e04\u0e27\u0e32\u0e21\u0e16": 3331, "\u0e32\u0e17\u0e35": 3332, "\u0e2a\u0e34\u0e07": 3333, "\u0e07\u0e07": 3334, "\u0e38\u0e4b": 3335, "\u0e40\u0e2d\u0e2a": 3336, "\u0e28\u0e34\u0e25\u0e32": 3337, "\u0e32\u0e23\u0e35": 3338, "\u0e1e\u0e23\u0e49\u0e32": 3339, "\u0e40\u0e19\u0e15\u0e34": 3340, "\u0e01\u0e34\u0e19\u0e44\u0e02\u0e48": 3341, "\u0e38\u0e18": 3342, "\u0e27\u0e0a": 3343, "\u0e21\u0e2b\u0e34": 3344, "\u0e40\u0e1f": 3345, "\u0e42\u0e22\u0e15\u0e35": 3346, "\u0e44\u0e2e\u0e40": 3347, "\u0e2b\u0e0d": 3348, "\u0e2b\u0e49\u0e2d\u0e07\u0e2b": 3349, "\u0e2b\u0e07": 3350, "\u0e15\u0e34\u0e01\u0e32": 3351, "\u0e44\u0e23\u0e49\u0e04": 3352, "\u0e09\u0e32\u0e22": 3353, "\u0e1e\u0e30\u0e22": 3354, "\u0e2d\u0e2e": 3355, "\u0e14\u0e2d\u0e25\u0e25": 3356, "\u0e32\u0e27\u0e4c": 3357, "\u0e31\u0e07\u0e40\u0e21": 3358, "\u0e25\u0e34\u0e48\u0e27": 3359, "\u0e09\u0e31\u0e19\u0e17": 3360, "\u0e02\u0e31\u0e49\u0e27": 3361, "\u0e30\u0e40\u0e1a\u0e35\u0e22": 3362, "\u0e2a\u0e34\u0e1a\u0e40\u0e2d": 3363, "\u0e01\u0e16\u0e2d\u0e19": 3364, "\u0e22\u0e34\u0e1b": 3365, "\u0e32\u0e04\u0e32": 3366, "\u0e31\u0e4b": 3367, "\u0e35\u0e0a\u0e35": 3368, "\u0e34\u0e2a": 3369, "\u0e1a\u0e31\u0e22": 3370, "\u0e0a\u0e31": 3371, "\u0e08\u0e4d\u0e32\u0e19\u0e27\u0e19\u0e2d": 3372, "\u0e41\u0e25\u0e30\u0e40": 3373, "\u0e40\u0e14\u0e37\u0e2d": 3374, "\u0e0b\u0e32\u0e22": 3375, "\u0e01\u0e4a": 3376, "\u0e42\u0e16": 3377, "\u0e32\u0e23\u0e4c\u0e01": 3378, "\u0e27\u0e34\u0e19\u0e34": 3379, "\u0e2a\u0e44\u0e15": 3380, "\u0e07\u0e14": 3381, "\u0e2d\u0e34\u0e19\u0e40\u0e17": 3382, "\u0e40\u0e2b\u0e34\u0e19": 3383, "\u0e19\u0e27\u0e19": 3384, "\u0e2b\u0e23": 3385, "\u0e42\u0e1e\u0e41": 3386, "\u0e37\u0e48\u0e2d\u0e22": 3387, "\u0e04\u0e22": 3388, "\u0e44\u0e2e\u0e42": 3389, "\u0e40\u0e02\u0e22\u0e48": 3390, "\u0e08\u0e32\u0e07": 3391, "\u0e04\u0e27\u0e32\u0e21\u0e08": 3392, "\u0e21\u0e2d\u0e2a": 3393, "\u0e23\u0e23\u0e21": 3394, "\u0e15\u0e23\u0e40\u0e25\u0e35\u0e22": 3395, "\u0e38\u0e0d\u0e0d\u0e32": 3396, "\u0e15\u0e30\u0e40": 3397, "\u0e40\u0e25\u0e48": 3398, "\u0e48\u0e32\u0e27": 3399, "\u0e09\u0e19": 3400, "\u0e21\u0e32\u0e21": 3401, "\u0e14\u0e31": 3402, "\u0e40\u0e02\u0e49\u0e32\u0e04": 3403, "\u0e19\u0e40\u0e0a\u0e35\u0e22": 3404, "\u0e1b\u0e23\u0e30\u0e2a": 3405, "\u0e01\u0e32\u0e07": 3406, "\u0e38\u0e1b": 3407, "\u0e06\u0e49\u0e2d": 3408, "\u0e41\u0e16": 3409, "\u0e1f\u0e31": 3410, "\u0e32\u0e28": 3411, "\u0e42\u0e19\u0e40": 3412, "\u0e21\u0e31\u0e22": 3413, "\u0e28\u0e27\u0e32": 3414, "\u0e40\u0e27\u0e49": 3415, "\u0e40\u0e01\u0e35\u0e22\u0e23": 3416, "\u0e2a\u0e48\u0e32\u0e2b": 3417, "\u0e2a\u0e31\u0e21\u0e1e": 3418, "\u0e04\u0e2d\u0e23\u0e4c": 3419, "\u0e02\u0e48\u0e32": 3420, "\u0e04\u0e4d\u0e32\u0e1e": 3421, "\u0e2e\u0e2d\u0e23\u0e4c": 3422, "\u0e2a\u0e39\u0e23": 3423, "\u0e1a\u0e34\u0e2a": 3424, "\u0e2a\u0e34\u0e1a\u0e2a\u0e2d\u0e07": 3425, "\u0e08\u0e32\u0e23\u0e35": 3426, "\u0e38\u0e17\u0e18": 3427, "\u0e15\u0e4d\u0e32\u0e41": 3428, "\u0e01\u0e23\u0e32": 3429, "\u0e31\u0e19\u0e19\u0e34": 3430, "\u0e38\u0e2a": 3431, "\u0e2a\u0e27\u0e34\u0e15": 3432, "\u0e27\u0e35\u0e14\u0e34": 3433, "\u0e0a\u0e48": 3434, "\u0e34\u0e19\u0e1a\u0e19": 3435, "\u0e1a\u0e48\u0e32": 3436, "\u0e08\u0e34\u0e01": 3437, "\u0e19\u0e35\u0e40\u0e0a\u0e35\u0e22": 3438, "\u0e21\u0e30\u0e42": 3439, "\u0e01\u0e32\u0e23\u0e22\u0e37": 3440, "\u0e07\u0e07\u0e32\u0e19": 3441, "\u0e28\u0e35": 3442, "\u0e19\u0e31\u0e01\u0e40\u0e17": 3443, "\u0e27\u0e34\u0e15": 3444, "\u0e27\u0e32\u0e1a": 3445, "\u0e42\u0e22\u0e04": 3446, "\u0e2d\u0e35\u0e40": 3447, "\u0e0a\u0e47\u0e2d": 3448, "\u0e40\u0e17\u0e1e\u0e32": 3449, "\u0e4a\u0e32\u0e22": 3450, "\u0e15\u0e34\u0e0a": 3451, "\u0e16\u0e1a\u0e14": 3452, "\u0e01\u0e32\u0e23\u0e17": 3453, "\u0e40\u0e1c": 3454, "\u0e2a\u0e27\u0e19\u0e2a\u0e19": 3455, "\u0e01\u0e32\u0e23\u0e15\u0e30": 3456, "\u0e23\u0e32\u0e0a\u0e01\u0e32\u0e23": 3457, "\u0e25\u0e35\u0e1a": 3458, "\u0e30\u0e07\u0e30": 3459, "\u0e43\u0e08\u0e08": 3460, "\u0e21\u0e2d\u0e25\u0e15": 3461, "\u0e01\u0e17": 3462, "\u0e31\u0e25": 3463, "\u0e2d\u0e21\u0e1e\u0e23\u0e30": 3464, "\u0e23\u0e35\u0e22\u0e21": 3465, "\u0e23\u0e20\u0e39\u0e21\u0e34": 3466, "\u0e1e\u0e32\u0e01": 3467, "\u0e01\u0e24\u0e15": 3468, "\u0e1a\u0e31\u0e25": 3469, "\u0e17\u0e23\u0e2d": 3470, "\u0e25\u0e49\u0e27": 3471, "\u0e19\u0e31\u0e01\u0e27\u0e34\u0e17\u0e22\u0e32": 3472, "\u0e2a\u0e22\u0e34": 3473, "\u0e15\u0e36\u0e01": 3474, "\u0e35\u0e07": 3475, "\u0e1b\u0e23\u0e2d": 3476, "\u0e01\u0e23\u0e30\u0e40\u0e0a": 3477, "\u0e14\u0e2a": 3478, "\u0e2d\u0e31\u0e25\u0e15\u0e23": 3479, "\u0e27\u0e34\u0e01": 3480, "\u0e02\u0e19\u0e32": 3481, "\u0e39\u0e40\u0e23": 3482, "\u0e2b\u0e38\u0e07": 3483, "\u0e2a\u0e32\u0e21\u0e2a\u0e34\u0e1a\u0e2b": 3484, "\u0e19\u0e32\u0e21\u0e32": 3485, "\u0e1b\u0e4c": 3486, "\u0e0b\u0e34\u0e07": 3487, "\u0e01\u0e35\u0e27": 3488, "\u0e2b\u0e21\u0e48\u0e32": 3489, "\u0e41\u0e2b\u0e25\u0e48": 3490, "\u0e31\u0e01\u0e23\u0e1a": 3491, "\u0e42\u0e23\u0e21\u0e32": 3492, "\u0e32\u0e15\u0e23\u0e32": 3493, "\u0e02\u0e49\u0e32\u0e27\u0e1c\u0e31\u0e14": 3494, "\u0e1e\u0e32\u0e2b": 3495, "\u0e14\u0e08": 3496, "\u0e31\u0e18\u0e22": 3497, "\u0e2b\u0e19\u0e36": 3498, "\u0e25\u0e32\u0e22\u0e17\u0e32\u0e07": 3499, "\u0e40\u0e15\u0e35\u0e48\u0e22": 3500, "\u0e2b\u0e31\u0e2a": 3501, "\u0e0a\u0e32\u0e18\u0e34": 3502, "\u0e2d\u0e19\u0e38\u0e0d\u0e32\u0e15": 3503, "\u0e01\u0e32\u0e23\u0e1c": 3504, "\u0e1b\u0e23\u0e30\u0e0a\u0e32\u0e0a": 3505, "\u0e07\u0e40\u0e2a\u0e49\u0e19": 3506, "\u0e08\u0e31\u0e07\u0e2b": 3507, "\u0e14\u0e2b\u0e21\u0e32\u0e22": 3508, "\u0e22\u0e32\u0e40\u0e2a\u0e1e": 3509, "\u0e2a\u0e14\u0e31\u0e1a": 3510, "\u0e1a\u0e39": 3511, "\u0e1b\u0e34\u0e48\u0e19": 3512, "\u0e14\u0e32\u0e27\u0e40\u0e04\u0e23\u0e32\u0e30\u0e2b\u0e4c\u0e19": 3513, "\u0e0b\u0e32\u0e19": 3514, "\u0e31\u0e08\u0e08\u0e38": 3515, "\u0e40\u0e2a\u0e34\u0e23\u0e4c": 3516, "\u0e07\u0e1e\u0e23\u0e30": 3517, "\u0e14\u0e32\u0e14": 3518, "\u0e2b\u0e21\u0e2d\u0e22": 3519, "\u0e2a\u0e32\u0e21\u0e40": 3520, "\u0e15\u0e0a": 3521, "\u0e42\u0e0a\u0e22": 3522, "\u0e1c\u0e49\u0e32\u0e1b": 3523, "\u0e2a\u0e27": 3524, "\u0e07\u0e02\u0e31": 3525, "\u0e09\u0e38": 3526, "\u0e18\u0e38\u0e23": 3527, "\u0e4d\u0e32\u0e17\u0e31\u0e1a": 3528, "\u0e1c\u0e32\u0e22": 3529, "\u0e40\u0e0b\u0e35\u0e22\u0e19": 3530, "\u0e0b\u0e34\u0e07\u0e01": 3531, "\u0e39\u0e08\u0e19": 3532, "\u0e2b\u0e35": 3533, "\u0e19\u0e34\u0e21": 3534, "\u0e2b\u0e27\u0e35": 3535, "\u0e32\u0e2e\u0e32": 3536, "\u0e2e\u0e2d\u0e25": 3537, "\u0e40\u0e1f\u0e37\u0e48\u0e2d\u0e07\u0e1f": 3538, "\u0e1c\u0e38": 3539, "\u0e2a\u0e16\u0e32": 3540, "\u0e25\u0e37\u0e21": 3541, "\u0e15\u0e36": 3542, "\u0e1b\u0e34\u0e15": 3543, "\u0e15\u0e31\u0e27\u0e40": 3544, "\u0e44\u0e1e\u0e25": 3545, "\u0e2a\u0e30\u0e1a\u0e31": 3546, "\u0e08\u0e38\u0e14\u0e1b\u0e23\u0e30\u0e2a": 3547, "\u0e49\u0e32\u0e19": 3548, "\u0e14\u0e32\u0e23\u0e4c": 3549, "\u0e42\u0e28\u0e20": 3550, "\u0e39\u0e21\u0e34": 3551, "\u0e35\u0e40\u0e0b": 3552, "\u0e02\u0e27\u0e32": 3553, "\u0e42\u0e1b\u0e23\u0e48\u0e07\u0e43": 3554, "\u0e1e\u0e39": 3555, "\u0e2d\u0e34\u0e2a": 3556, "\u0e1b\u0e49\u0e32": 3557, "\u0e35\u0e49\u0e22": 3558, "\u0e2d\u0e25\u0e4c": 3559, "\u0e1b\u0e32\u0e25": 3560, "\u0e31\u0e2a\u0e2a": 3561, "\u0e2a\u0e32\u0e01": 3562, "\u0e34\u0e1e": 3563, "\u0e2b\u0e38\u0e49\u0e19": 3564, "\u0e04\u0e32\u0e07": 3565, "\u0e23\u0e19\u0e14\u0e4c": 3566, "\u0e48\u0e4d\u0e32": 3567, "\u0e01\u0e32\u0e23\u0e1a": 3568, "\u0e21\u0e2d\u0e22": 3569, "\u0e25\u0e38\u0e22": 3570, "\u0e15\u0e30\u0e40\u0e02": 3571, "\u0e04\u0e2d\u0e2a": 3572, "\u0e04\u0e23\u0e34\u0e2a\u0e15\u0e28": 3573, "\u0e23\u0e32\u0e30": 3574, "\u0e1b\u0e34\u0e15\u0e38": 3575, "\u0e01\u0e32\u0e14": 3576, "\u0e09\u0e21": 3577, "\u0e23\u0e32\u0e0a\u0e0d": 3578, "\u0e38\u0e4a\u0e14": 3579, "\u0e42\u0e1b\u0e23\u0e48\u0e07": 3580, "\u0e4c\u0e44\u0e27": 3581, "\u0e1e\u0e24\u0e29\u0e20\u0e32": 3582, "\u0e16\u0e38\u0e07\u0e19": 3583, "\u0e32\u0e0a": 3584, "\u0e14\u0e23\u0e32": 3585, "\u0e01\u0e32\u0e23\u0e1b\u0e23\u0e30\u0e17": 3586, "\u0e25\u0e48": 3587, "\u0e2a\u0e16\u0e32\u0e1b": 3588, "\u0e27\u0e25\u0e37\u0e21": 3589, "\u0e2d\u0e21\u0e15": 3590, "\u0e01\u0e25\u0e49\u0e2d\u0e07\u0e2a": 3591, "\u0e1a\u0e31\u0e15": 3592, "\u0e32\u0e15\u0e21": 3593, "\u0e2d\u0e32\u0e0a\u0e0d\u0e32\u0e01\u0e23": 3594, "\u0e27\u0e34\u0e2b": 3595, "\u0e08\u0e38\u0e01": 3596, "\u0e0a\u0e48\u0e2d\u0e07\u0e42": 3597, "\u0e1b\u0e48": 3598, "\u0e01\u0e23\u0e32\u0e1a": 3599, "\u0e1a\u0e34\u0e4a": 3600, "\u0e40\u0e1b\u0e25": 3601, "\u0e21\u0e21\u0e32": 3602, "\u0e40\u0e19\u0e23": 3603, "\u0e40\u0e1f\u0e37\u0e48\u0e2d\u0e07": 3604, "\u0e23\u0e39\u0e1a\u0e32": 3605, "\u0e31\u0e27\u0e23\u0e4c": 3606, "\u0e27\u0e48\u0e32\u0e19": 3607, "\u0e41\u0e15\u0e49": 3608, "\u0e21\u0e32\u0e19": 3609, "\u0e38\u0e14": 3610, "\u0e25\u0e40\u0e0b\u0e35\u0e22": 3611, "\u0e08\u0e35\u0e49": 3612, "\u0e40\u0e2b\u0e21\u0e48": 3613, "\u0e32\u0e22\u0e2a\u0e35": 3614, "\u0e2d\u0e23\u0e4c\u0e14": 3615, "\u0e32\u0e27\u0e19\u0e4c": 3616, "\u0e2a\u0e37\u0e2d": 3617, "\u0e42\u0e22\u0e48": 3618, "\u0e32\u0e40\u0e21\u0e25": 3619, "\u0e40\u0e04\u0e32": 3620, "\u0e04\u0e32\u0e21": 3621, "\u0e1a\u0e23\u0e23\u0e08": 3622, "\u0e2a\u0e31\u0e07\u0e04": 3623, "\u0e34\u0e40\u0e27": 3624, "\u0e39\u0e17\u0e23": 3625, "\u0e04\u0e4d\u0e32\u0e2a": 3626, "\u0e2a\u0e30\u0e2d": 3627, "\u0e19\u0e32\u0e14": 3628, "\u0e2d\u0e4b": 3629, "\u0e19\u0e48\u0e32\u0e23\u0e31": 3630, "\u0e2b\u0e19\u0e31\u0e07\u0e15": 3631, "\u0e35\u0e40\u0e17\u0e35\u0e22": 3632, "\u0e15\u0e4b": 3633, "\u0e07\u0e01\u0e25\u0e21": 3634, "\u0e32\u0e1a\u0e32": 3635, "\u0e2a\u0e22": 3636, "\u0e1b\u0e25\u0e27": 3637, "\u0e32\u0e22\u0e43\u0e15\u0e49": 3638, "\u0e17\u0e39\u0e19": 3639, "\u0e40\u0e2a\u0e1e\u0e22\u0e4c": 3640, "\u0e19\u0e32\u0e01": 3641, "\u0e2a\u0e01\u0e38": 3642, "\u0e23\u0e31": 3643, "\u0e40\u0e0b\u0e47": 3644, "\u0e19\u0e1a": 3645, "\u0e08\u0e31\u0e48\u0e19": 3646, "\u0e2a\u0e2b\u0e1e\u0e31\u0e19": 3647, "\u0e42\u0e0b\u0e19": 3648, "\u0e02\u0e49\u0e32\u0e27\u0e1c\u0e31\u0e14\u0e01": 3649, "\u0e42\u0e1b\u0e4a\u0e22": 3650, "\u0e02\u0e49": 3651, "\u0e01\u0e25\u0e49\u0e32": 3652, "\u0e01\u0e32\u0e23\u0e01\u0e23\u0e2d": 3653, "\u0e01\u0e38\u0e14": 3654, "\u0e07\u0e1a": 3655, "\u0e2b\u0e19\u0e49\u0e32\u0e08": 3656, "\u0e43\u0e08\u0e04": 3657, "\u0e1b\u0e2d\u0e01": 3658, "\u0e31\u0e19\u0e14": 3659, "\u0e25\u0e48\u0e2d\u0e07": 3660, "\u0e23\u0e34\u0e1a": 3661, "\u0e18\u0e2d": 3662, "\u0e23\u0e34\u0e22": 3663, "\u0e17\u0e22": 3664, "\u0e22\u0e01\u0e40": 3665, "\u0e41\u0e1b\u0e4a": 3666, "\u0e41\u0e17\u0e48": 3667, "\u0e04\u0e27\u0e32\u0e21\u0e27\u0e34": 3668, "\u0e23\u0e34\u0e48\u0e21": 3669, "\u0e1a\u0e25": 3670, "\u0e04\u0e27\u0e1a": 3671, "\u0e1b\u0e32\u0e1b": 3672, "\u0e14\u0e23\u0e31": 3673, "\u0e23\u0e48\u0e32\u0e22": 3674, "\u0e23\u0e27": 3675, "\u0e31\u0e01\u0e40": 3676, "\u0e44\u0e21\u0e48\u0e40": 3677, "\u0e1c\u0e34": 3678, "\u0e15\u0e2d\u0e23": 3679, "\u0e17\u0e23\u0e07\u0e2a\u0e34\u0e1a": 3680, "\u0e23\u0e34\u0e48\u0e07": 3681, "\u0e2b\u0e31\u0e27\u0e2b": 3682, "\u0e25\u0e34\u0e04\u0e2d": 3683, "\u0e40\u0e1a\u0e2d\u0e23\u0e4c\u0e40": 3684, "\u0e41\u0e1e\u0e25": 3685, "\u0e1a\u0e48\u0e2d": 3686, "\u0e32\u0e42\u0e14": 3687, "\u0e01\u0e19": 3688, "\u0e23\u0e16\u0e1a": 3689, "\u0e42\u0e19\u0e42": 3690, "\u0e39\u0e19": 3691, "\u0e2d\u0e19\u0e32": 3692, "\u0e2a\u0e31\u0e21\u0e1e\u0e31": 3693, "\u0e25\u0e25\u0e4c": 3694, "\u0e15\u0e15\u0e32": 3695, "\u0e23\u0e31\u0e0a": 3696, "\u0e31\u0e07\u0e01\u0e32\u0e23": 3697, "\u0e16\u0e25": 3698, "\u0e21\u0e48\u0e32": 3699, "\u0e2a\u0e38\u0e25": 3700, "\u0e08\u0e49": 3701, "\u0e01\u0e2d\u0e25": 3702, "\u0e31": 3703, "\u0e2d\u0e34\u0e01": 3704, "\u0e42\u0e23\u0e44": 3705, "\u0e02\u0e22\u0e30": 3706, "\u0e34\u0e42\u0e2d": 3707, "\u0e42\u0e1f": 3708, "\u0e0a\u0e40\u0e04": 3709, "\u0e42\u0e1e\u0e14": 3710, "\u0e2a\u0e19\u0e38\u0e01": 3711, "\u0e21\u0e30\u0e23": 3712, "\u0e31\u0e01\u0e29\u0e4c": 3713, "\u0e18\u0e38": 3714, "\u0e40\u0e21\u0e47\u0e14": 3715, "\u0e34\u0e14\u0e08": 3716, "\u0e25\u0e32\u0e41": 3717, "\u0e4b": 3718, "\u0e47\u0e19": 3719, "\u0e25\u0e32\u0e01": 3720, "\u0e2a\u0e32\u0e23\u0e2a": 3721, "\u0e14\u0e34\u0e01": 3722, "\u0e2a\u0e31\u0e01": 3723, "\u0e25\u0e32\u0e27\u0e40": 3724, "\u0e37\u0e49\u0e19": 3725, "\u0e21\u0e31": 3726, "\u0e01\u0e21": 3727, "\u0e19\u0e19": 3728, "\u0e16\u0e38": 3729, "\u0e1a\u0e4a": 3730, "\u0e07\u0e06": 3731, "\u0e15\u0e30\u0e27\u0e31\u0e19": 3732, "\u0e49\u0e32\u0e21": 3733, "\u0e32\u0e23\u0e27\u0e34": 3734, "\u0e2d\u0e49\u0e2d\u0e21": 3735, "\u0e40\u0e2d\u0e37": 3736, "\u0e08\u0e2d\u0e23\u0e4c": 3737, "\u0e07\u0e04\u0e25": 3738, "\u0e31\u0e49\u0e27": 3739, "\u0e40\u0e1b\u0e23": 3740, "\u0e40\u0e1a\u0e42": 3741, "\u0e31\u0e2a\u0e15\u0e32": 3742, "\u0e14\u0e2d": 3743, "\u0e32\u0e19\u0e32": 3744, "\u0e15\u0e32\u0e19": 3745, "\u0e31\u0e19\u0e42\u0e15": 3746, "\u0e15\u0e31\u0e1a\u0e41": 3747, "\u0e34\u0e15\u0e16": 3748, "\u0e48\u0e22\u0e4c": 3749, "\u0e40\u0e1b\u0e47\u0e19\u0e2b": 3750, "\u0e28\u0e34": 3751, "\u0e04\u0e27\u0e32": 3752, "\u0e2d\u0e40\u0e27": 3753, "\u0e21\u0e42\u0e2b\u0e14": 3754, "\u0e23\u0e30\u0e27\u0e31": 3755, "\u0e23\u0e48": 3756, "\u0e0a\u0e07": 3757, "\u0e31\u0e01\u0e01\u0e35": 3758, "\u0e2a\u0e4d\u0e32\u0e23\u0e2d": 3759, "\u0e22\u0e35\u0e19": 3760, "\u0e1d\u0e2d": 3761, "\u0e04\u0e27\u0e32\u0e21\u0e42\u0e01": 3762, "\u0e2d\u0e38\u0e17\u0e32": 3763, "\u0e41\u0e1b": 3764, "\u0e1f\u0e2d\u0e19": 3765, "\u0e34\u0e4a\u0e01": 3766, "\u0e27\u0e34\u0e2a\u0e32\u0e21": 3767, "\u0e01\u0e32\u0e23\u0e23\u0e2d": 3768, "\u0e2a\u0e36": 3769, "\u0e2a\u0e31\u0e07\u0e40": 3770, "\u0e27\u0e34\u0e42": 3771, "\u0e23\u0e38\u0e13": 3772, "\u0e23\u0e15": 3773, "\u0e01\u0e32\u0e23\u0e01\u0e23\u0e30": 3774, "\u0e17\u0e35\u0e48\u0e2a\u0e34\u0e1a\u0e2a": 3775, "\u0e2a\u0e32\u0e1a": 3776, "\u0e40\u0e2b\u0e35\u0e49\u0e22": 3777, "\u0e25\u0e14": 3778, "\u0e25\u0e14\u0e4c": 3779, "\u0e2b\u0e22\u0e31": 3780, "\u0e04\u0e27\u0e32\u0e21\u0e27": 3781, "\u0e07\u0e01\u0e23\u0e32\u0e19": 3782, "\u0e32\u0e23\u0e32\u0e18": 3783, "\u0e19\u0e40\u0e14": 3784, "\u0e20\u0e32\u0e22\u0e43": 3785, "\u0e01\u0e23\u0e30\u0e0a\u0e32": 3786, "\u0e2d\u0e19\u0e2b\u0e19\u0e31\u0e07\u0e2a\u0e37\u0e2d": 3787, "\u0e19\u0e15\u0e32": 3788, "\u0e31\u0e17": 3789, "\u0e14\u0e39\u0e01": 3790, "\u0e2a\u0e21\u0e2d": 3791, "\u0e24\u0e15": 3792, "\u0e30\u0e15\u0e2d": 3793, "\u0e27\u0e34\u0e08": 3794, "\u0e22\u0e35\u0e48\u0e2a\u0e34\u0e1a\u0e2a": 3795, "\u0e1a\u0e2b": 3796, "\u0e01\u0e1a\u0e32": 3797, "\u0e1a\u0e38\u0e29": 3798, "\u0e40\u0e17\u0e1e\u0e22": 3799, "\u0e02\u0e31\u0e13\u0e11": 3800, "\u0e25\u0e22\u0e4c": 3801, "\u0e23\u0e31\u0e07\u0e41": 3802, "\u0e25\u0e4d\u0e32\u0e20": 3803, "\u0e19\u0e49\u0e4d\u0e32\u0e01": 3804, "\u0e44\u0e22": 3805, "\u0e38\u0e23\u0e30": 3806, "\u0e08\u0e23\u0e34\u0e22": 3807, "\u0e23\u0e39\u0e2b": 3808, "\u0e2a\u0e35\u0e48\u0e2a\u0e34\u0e1a\u0e2a": 3809, "\u0e1e\u0e34\u0e16": 3810, "\u0e17\u0e4d\u0e32\u0e19": 3811, "\u0e16\u0e23": 3812, "\u0e16\u0e35": 3813, "\u0e2a\u0e40\u0e01\u0e15": 3814, "\u0e07\u0e14\u0e39": 3815, "\u0e0b\u0e35\u0e25": 3816, "\u0e23\u0e35\u0e22\u0e07": 3817, "\u0e25\u0e34\u0e40": 3818, "\u0e2b\u0e19\u0e39\u0e15": 3819, "\u0e2b\u0e31": 3820, "\u0e29\u0e31": 3821, "\u0e40\u0e02\u0e22": 3822, "\u0e15\u0e31\u0e27\u0e01\u0e34\u0e19": 3823, "\u0e20\u0e34": 3824, "\u0e01\u0e32\u0e23\u0e02": 3825, "\u0e40\u0e04\u0e23\u0e37\u0e48\u0e2d\u0e07\u0e14": 3826, "\u0e40\u0e17\u0e25": 3827, "\u0e27\u0e25\u0e32": 3828, "\u0e27\u0e34\u0e25\u0e32": 3829, "\u0e07\u0e42\u0e01\u0e25": 3830, "\u0e17\u0e36": 3831, "\u0e39\u0e23\u0e22": 3832, "\u0e04\u0e32\u0e23\u0e32": 3833, "\u0e19\u0e34\u0e19": 3834, "\u0e21\u0e25": 3835, "\u0e08\u0e34\u0e23": 3836, "\u0e27\u0e31\u0e15\u0e16\u0e38\u0e14": 3837, "\u0e15\u0e23\u0e4c": 3838, "\u0e2a\u0e34\u0e1a\u0e2b": 3839, "\u0e1b\u0e34\u0e01": 3840, "\u0e21\u0e27\u0e19": 3841, "\u0e25\u0e32\u0e21": 3842, "\u0e32\u0e23\u0e4c\u0e15": 3843, "\u0e41\u0e01\u0e4a\u0e07": 3844, "\u0e23\u0e40\u0e17\u0e28": 3845, "\u0e4d\u0e32\u0e19\u0e4d\u0e32": 3846, "\u0e08\u0e4d\u0e32\u0e40": 3847, "\u0e32\u0e29": 3848, "\u0e32\u0e23\u0e4c\u0e17": 3849, "\u0e14\u0e2d\u0e19": 3850, "\u0e1a\u0e48\u0e07": 3851, "\u0e40\u0e07\u0e32\u0e21": 3852, "\u0e08\u0e34\u0e15\u0e23": 3853, "\u0e15\u0e37\u0e49": 3854, "\u0e19\u0e40\u0e2d": 3855, "\u0e20\u0e23": 3856, "\u0e47\u0e01\u0e40": 3857, "\u0e40\u0e07\u0e48\u0e32": 3858, "\u0e40\u0e22\u0e2d": 3859, "\u0e40\u0e18": 3860, "\u0e01\u0e4d\u0e32\u0e40": 3861, "\u0e2d\u0e38\u0e1b\u0e23\u0e32": 3862, "\u0e22\u0e48": 3863, "\u0e23\u0e34\u0e21": 3864, "\u0e34\u0e1b\u0e15": 3865, "\u0e02\u0e31\u0e49\u0e19\u0e15": 3866, "\u0e32\u0e01\u0e32\u0e23": 3867, "\u0e31\u0e19\u0e14\u0e32\u0e25": 3868, "\u0e1f\u0e1f\u0e34": 3869, "\u0e47\u0e21": 3870, "\u0e2a\u0e38\u0e17\u0e18\u0e34": 3871, "\u0e1a\u0e48": 3872, "\u0e40\u0e01\u0e22": 3873, "\u0e0a\u0e37\u0e48\u0e19": 3874, "\u0e14\u0e36\u0e01": 3875, "\u0e2d\u0e38\u0e1b\u0e2a": 3876, "\u0e23\u0e18": 3877, "\u0e23\u0e4c\u0e42\u0e1a": 3878, "\u0e40\u0e04\u0e23\u0e37\u0e48\u0e2d\u0e07\u0e23": 3879, "\u0e35\u0e2d\u0e32": 3880, "\u0e23\u0e32\u0e19": 3881, "\u0e1b\u0e34\u0e15\u0e32": 3882, "\u0e2a\u0e15\u0e32\u0e23\u0e4c": 3883, "\u0e1c\u0e37": 3884, "\u0e1a\u0e23\u0e23\u0e1e\u0e0a": 3885, "\u0e04\u0e25\u0e31": 3886, "\u0e17\u0e32\u0e01": 3887, "\u0e1e\u0e23\u0e30\u0e23\u0e32": 3888, "\u0e41\u0e04\u0e27": 3889, "\u0e14\u0e32\u0e23": 3890, "\u0e01\u0e32\u0e23\u0e41": 3891, "\u0e2b\u0e34\u0e15": 3892, "\u0e28\u0e15\u0e20": 3893, "\u0e40\u0e14\u0e47\u0e01\u0e1c\u0e39\u0e49": 3894, "\u0e40\u0e2e\u0e25": 3895, "\u0e1a\u0e23\u0e23\u0e17": 3896, "\u0e1a\u0e38\u0e2b": 3897, "\u0e25\u0e21\u0e2d\u0e19": 3898, "\u0e21\u0e32\u0e23\u0e4c\u0e40": 3899, "\u0e2a\u0e35\u0e2a": 3900, "\u0e27\u0e32\u0e19\u0e32": 3901, "\u0e44\u0e01\u0e23": 3902, "\u0e35\u0e49\u0e22\u0e07": 3903, "\u0e01\u0e34\u0e42": 3904, "\u0e01\u0e23\u0e30\u0e1b": 3905, "\u0e04\u0e4d\u0e32\u0e19": 3906, "\u0e15\u0e34\u0e01\u0e23\u0e23\u0e21": 3907, "\u0e07\u0e04\u0e32": 3908, "\u0e21\u0e2a\u0e40\u0e15\u0e2d\u0e23\u0e4c": 3909, "\u0e2b\u0e22\u0e38": 3910, "\u0e2a\u0e19\u0e32": 3911, "\u0e2a\u0e38\u0e01\u0e23": 3912, "\u0e2d\u0e2d\u0e23\u0e4c": 3913, "\u0e2d\u0e15\u0e41\u0e25\u0e19": 3914, "\u0e4a\u0e14": 3915, "\u0e01\u0e23\u0e30\u0e14\u0e39\u0e01\u0e42": 3916, "\u0e04\u0e27\u0e32\u0e21\u0e1e": 3917, "\u0e2a\u0e44": 3918, "\u0e40\u0e2a\u0e32": 3919, "\u0e25\u0e01": 3920, "\u0264": 3921, "\u0e15\u0e49\u0e2d": 3922, "\u0e08\u0e4d\u0e32\u0e19": 3923, "\u0e31\u0e07\u0e01\u0e32": 3924, "\u0e14\u0e25\u0e21": 3925, "\u0e32\u0e01\u0e32": 3926, "\u0e21\u0e30\u0e1e": 3927, "\u0e47\u0e2d": 3928, "\u0e2d\u0e21\u0e34": 3929, "\u0e21\u0e23\u0e34": 3930, "\u0e15\u0e23\u0e07\u0e19": 3931, "\u0e40\u0e14\u0e23": 3932, "\u0e42\u0e01\u0e07\u0e01": 3933, "\u0e09\u0e25": 3934, "\u0e08\u0e09\u0e32": 3935, "\u0e4d\u0e32\u0e01\u0e31\u0e14": 3936, "\u0e1e\u0e34\u0e2a": 3937, "\u0e04\u0e4d\u0e32\u0e15": 3938, "\u0e40\u0e07\u0e37": 3939, "\u0e0a\u0e31\u0e48\u0e27\u0e01\u0e31": 3940, "\u0e04\u0e27\u0e32\u0e21\u0e23": 3941, "\u0e17\u0e27\u0e35": 3942, "\u0e01\u0e01\u0e25\u0e49\u0e27\u0e22": 3943, "\u0e19\u0e15": 3944, "\u0e40\u0e08\u0e23": 3945, "\u0e32\u0e04\u0e23": 3946, "\u0e15\u0e23\u0e30": 3947, "\u0e44\u0e21\u0e48\u0e2d": 3948, "\u0e0b\u0e35\u0e19": 3949, "\u0e25\u0e41\u0e27": 3950, "\u0e19\u0e27\u0e14": 3951, "\u0e08\u0e31\u0e01\u0e08": 3952, "\u0e41\u0e21\u0e48\u0e19": 3953, "\u0e40\u0e1b\u0e35\u0e22": 3954, "\u0e40\u0e2a\u0e37\u0e49\u0e2d\u0e41": 3955, "\u0e2b\u0e32\u0e01": 3956, "\u0e30\u0e40\u0e01": 3957, "\u0e40\u0e23\u0e48": 3958, "\u0e2a\u0e40\u0e0b\u0e35\u0e22": 3959, "\u0e40\u0e1b\u0e19": 3960, "\u0e41\u0e21\u0e25\u0e07\u0e1b": 3961, "\u0e0a\u0e34\u0e19": 3962, "\u0e1e\u0e34\u0e23": 3963, "\u0e19\u0e2b": 3964, "\u0e23\u0e31\u0e07\u0e2a\u0e35\u0e41": 3965, "\u0e44\u0e27\u0e42\u0e2d": 3966, "\u0e07\u0e42\u0e01": 3967, "\u0e16\u0e27": 3968, "\u0e1a\u0e19\u0e49\u0e4d\u0e32": 3969, "\u0e19\u0e49\u0e4d\u0e32\u0e17\u0e48": 3970, "\u0e2d\u0e38\u0e1a": 3971, "\u0e19\u0e34\u0e42": 3972, "\u0e2a\u0e31\u0e19\u0e14": 3973, "\u0e04\u0e07\u0e17": 3974, "\u0e2d\u0e07\u0e1e\u0e31\u0e19": 3975, "\u0e1e\u0e32\u0e22": 3976, "\u0e21\u0e06\u0e30": 3977, "\u0e1f\u0e37": 3978, "\u0e2d\u0e14\u0e34\u0e40": 3979, "\u0e19\u0e14\u0e2d\u0e19": 3980, "\u0e47\u0e01\u0e40\u0e01": 3981, "\u0e21\u0e35\u0e22\u0e19": 3982, "\u0e1e\u0e13": 3983, "\u0e23\u0e21\u0e23\u0e32\u0e0a\u0e32\u0e18": 3984, "\u0e1e\u0e1a\u0e39": 3985, "\u0e44\u0e21\u0e15": 3986, "\u0e11\u0e39": 3987, "\u0e22\u0e40\u0e0b\u0e35\u0e22\u0e19": 3988, "\u0e48\u0e27\u0e21": 3989, "\u0e22\u0e48\u0e2d": 3990, "\u0e2d\u0e07\u0e04": 3991, "\u0e21\u0e30\u0e01": 3992, "\u0e23\u0e4c\u0e15": 3993, "\u0e01\u0e32\u0e23\u0e41\u0e17\u0e19": 3994, "\u0e01\u0e25\u0e49": 3995, "\u0e1f\u0e34\u0e19": 3996, "\u0e30\u0e01\u0e2d": 3997, "\u0e40\u0e25\u0e19": 3998, "\u0e1a\u0e31\u0e13\u0e11\u0e34\u0e15": 3999, "\u0e1b\u0e25\u0e32\u0e14": 4000, "\u0e40\u0e1e\u0e35\u0e22": 4001, "\u0e32\u0e15": 4002, "\u0e01\u0e25\u0e1a": 4003, "\u0e31\u0e0d\u0e40": 4004, "\u0e17\u0e31\u0e27": 4005, "\u0e34\u0e23\u0e32\u0e0a": 4006, "\u0e1a\u0e1b": 4007, "\u0e14\u0e2b\u0e39": 4008, "\u0e2a\u0e42\u0e25": 4009, "\u0e38\u0e29": 4010, "\u0e2b\u0e21\u0e48\u0e2d": 4011, "\u0e21\u0e30\u0e25": 4012, "\u0e2a\u0e2d\u0e07\u0e41": 4013, "\u0e40\u0e2a\u0e25": 4014, "\u0e16\u0e49\u0e32": 4015, "\u0e23\u0e32\u0e18": 4016, "\u0e15\u0e31\u0e27\u0e41": 4017, "\u0e23\u0e34\u0e19": 4018, "\u0e39\u0e23": 4019, "\u0e2e\u0e31\u0e21": 4020, "\u0e1e\u0e19\u0e07": 4021, "\u0e17\u0e23\u0e32\u0e21": 4022, "\u0e01\u0e23\u0e30\u0e2b": 4023, "\u0e01\u0e23\u0e30\u0e1e": 4024, "\u0e01\u0e31\u0e49": 4025, "\u0e2d\u0e34\u0e19\u0e17\u0e23": 4026, "\u0e40\u0e17\u0e1e\u0e19": 4027, "\u0e49\u0e27\u0e21": 4028, "\u0e4a\u0e07": 4029, "\u0e27\u0e49": 4030, "\u0e22\u0e38\u0e07": 4031, "\u0e21\u0e49\u0e32\u0e21": 4032, "\u0e01\u0e48\u0e07": 4033, "\u0e1b\u0e30\u0e23": 4034, "\u0e48\u0e22": 4035, "\u0e23\u0e30\u0e19\u0e32": 4036, "\u0e15\u0e23\u0e34\u0e42": 4037, "\u0e1e\u0e23\u0e32": 4038, "\u0e19\u0e35\u0e22": 4039, "\u0e0d\u0e0d\u0e32\u0e13": 4040, "\u0e35\u0e48\u0e22\u0e19": 4041, "\u0e25\u0e35\u0e48\u0e22\u0e19": 4042, "\u0e1c\u0e39\u0e49\u0e25": 4043, "\u0e1f\u0e48": 4044, "\u0e1b\u0e23\u0e30\u0e14": 4045, "\u0e40\u0e2a\u0e49\u0e19\u0e41": 4046, "\u0e23\u0e15\u0e34": 4047, "\u0e02\u0e49\u0e32\u0e27\u0e2a\u0e32": 4048, "\u0e06\u0e32\u0e15\u0e01\u0e23": 4049, "\u0e40\u0e08\u0e49\u0e32\u0e2a": 4050, "\u0e0b\u0e2d\u0e01": 4051, "\u0e27\u0e13": 4052, "\u0e01\u0e02": 4053, "\u0e1b\u0e23\u0e30\u0e0a": 4054, "\u0e04\u0e27\u0e32\u0e21\u0e07": 4055, "\u0e04\u0e25\u0e37\u0e48\u0e19\u0e43": 4056, "\u0e19\u0e15\u0e23": 4057, "\u0e01\u0e32\u0e23\u0e17\u0e32": 4058, "\u0e01\u0e32\u0e23\u0e2d\u0e32": 4059, "\u0e42\u0e1b\u0e2a": 4060, "\u0e25\u0e49\u0e2d\u0e07": 4061, "\u0e21\u0e20": 4062, "\u0e1c\u0e39\u0e49\u0e0a": 4063, "\u0e23\u0e18\u0e32": 4064, "\u0e1b\u0e23\u0e30\u0e40\u0e14": 4065, "\u0e22\u0e49\u0e32": 4066, "\u0e32\u0e0b\u0e32\u0e27": 4067, "\u0e34\u0e49\u0e19": 4068, "\u0e2d\u0e42": 4069, "\u0e1e\u0e23\u0e34\u0e01\u0e02": 4070, "\u0e19\u0e07\u0e40\u0e0a": 4071, "\u0e0b\u0e32\u0e40": 4072, "\u0e25\u0e25\u0e48\u0e32": 4073, "\u0e47\u0e2d\u0e01\u0e40\u0e01": 4074, "\u0e48\u0e32\u0e2b": 4075, "\u0e2a\u0e48\u0e32": 4076, "\u0e40\u0e0b\u0e40\u0e25": 4077, "\u0e15\u0e22": 4078, "\u0e25\u0e32\u0e40": 4079, "\u0e2a\u0e31\u0e21\u0e20": 4080, "\u0e49\u0e27\u0e22": 4081, "\u0e2d\u0e2d\u0e01\u0e2b": 4082, "\u0e21\u0e40\u0e22": 4083, "\u0e1a\u0e35\u0e1a": 4084, "\u0e48\u0e32\u0e21": 4085, "\u0e1c\u0e39\u0e49\u0e04": 4086, "\u0e30\u0e40\u0e14\u0e37": 4087, "\u0e0a\u0e38": 4088, "\u0e0b\u0e21\u0e40\u0e1a": 4089, "\u0e19\u0e21\u0e02\u0e49": 4090, "\u0e04\u0e13": 4091, "\u0e04\u0e31": 4092, "\u0e1e\u0e32\u0e2a": 4093, "\u0e35\u0e49\u0e22\u0e21": 4094, "\u0e2d\u0e34\u0e19\u0e40": 4095, "\u0e40\u0e0b\u0e19": 4096, "\u0e04\u0e39\u0e48\u0e04\u0e27": 4097, "\u0e15\u0e31\u0e49\u0e07\u0e42": 4098, "\u0e18\u0e19\u0e1a": 4099, "\u0e42\u0e22\u0e1a": 4100, "\u0e42\u0e01\u0e13": 4101, "\u0e0d\u0e0a\u0e23": 4102, "\u0e2d\u0e32\u0e0d\u0e32": 4103, "\u0e23\u0e29": 4104, "\u0e40\u0e1a\u0e34\u0e25\u0e40": 4105, "\u0e01\u0e32\u0e23\u0e2b\u0e21": 4106, "\u0e40\u0e21\u0e35\u0e22\u0e19": 4107, "\u0e2d\u0e32\u0e01\u0e32\u0e28\u0e22\u0e32\u0e19\u0e44": 4108, "\u0e01\u0e25\u0e48\u0e2d\u0e07\u0e14": 4109, "\u0e17\u0e1e": 4110, "\u0e06\u0e48": 4111, "\u0e40\u0e01\u0e4a": 4112, "\u0e19\u0e48\u0e32\u0e23": 4113, "\u0e19\u0e38\u0e01": 4114, "\u0e04\u0e23\u0e38": 4115, "\u0e11\u0e32": 4116, "\u0e23\u0e30\u0e14": 4117, "\u0e17\u0e2d\u0e23\u0e4c": 4118, "\u0e1b\u0e23\u0e34\u0e19": 4119, "\u0e31\u0e01\u0e40\u0e1e\u0e28": 4120, "\u0e1b\u0e31\u0e07\u0e01\u0e23": 4121, "\u0e04\u0e27\u0e32\u0e21\u0e21\u0e31\u0e48\u0e19": 4122, "\u0e04\u0e39\u0e40": 4123, "\u0e01\u0e32\u0e23\u0e40\u0e1e\u0e34": 4124, "\u0e2b\u0e23\u0e35\u0e48": 4125, "\u0e47\u0e08": 4126, "\u0e19\u0e34\u0e17": 4127, "\u0e01\u0e49\u0e21": 4128, "\u0e1e\u0e23\u0e30\u0e1e": 4129, "\u0e23\u0e18\u0e19": 4130, "\u0e0a\u0e48\u0e2d": 4131, "\u0e27\u0e08": 4132, "\u0e38\u0e01\u0e23\u0e21": 4133, "\u0e23\u0e30\u0e1a\u0e38": 4134, "\u0e23\u0e07\u0e04": 4135, "\u0e17\u0e32\u0e07\u0e41": 4136, "\u0e23\u0e4c\u0e42\u0e15": 4137, "\u0e27\u0e15\u0e32": 4138, "\u0e1c\u0e39\u0e49\u0e23\u0e31\u0e01": 4139, "\u0e1a\u0e23\u0e23\u0e22\u0e32": 4140, "\u0e17\u0e1b": 4141, "\u0e39\u0e1a": 4142, "\u0e1c\u0e39\u0e49\u0e43": 4143, "\u0e19\u0e38\u0e48\u0e21": 4144, "\u0e2a\u0e32\u0e27\u0e14": 4145, "\u0e40\u0e15\u0e49": 4146, "\u0e15\u0e32\u0e27": 4147, "\u0e28\u0e31": 4148, "\u0e32\u0e07\u0e21\u0e49\u0e32": 4149, "\u0e4a\u0e32": 4150, "\u0e04\u0e0a": 4151, "\u0e31\u0e15\u0e16": 4152, "\u0e34\u0e19\u0e34\u0e08": 4153, "\u0e40\u0e23\u0e2d": 4154, "\u0e43\u0e08\u0e40\u0e2a": 4155, "\u0e23\u0e37\u0e2d": 4156, "\u0e08\u0e31\u0e01\u0e29": 4157, "\u0e2b\u0e38\u0e49\u0e21\u0e1b": 4158, "\u0e23\u0e36": 4159, "\u0e41\u0e25\u0e47": 4160, "\u0e23\u0e22\u0e32": 4161, "\u0e08\u0e49\u0e32": 4162, "\u0e40\u0e0a\u0e47": 4163, "\u0e19\u0e34\u0e49": 4164, "\u0e02\u0e37\u0e48\u0e2d": 4165, "\u0e44\u0e1b\u0e23\u0e29\u0e13\u0e35\u0e22": 4166, "\u0e40\u0e1b\u0e25\u0e37\u0e2d": 4167, "\u0e40\u0e23\u0e34\u0e48": 4168, "\u0e44\u0e21\u0e48\u0e17\u0e31": 4169, "\u0e36\u0e4b": 4170, "\u0e34\u0e44": 4171, "\u0e19\u0e38\u0e29\u0e22": 4172, "\u0e40\u0e25\u0e37\u0e2d\u0e19": 4173, "\u0e29\u0e31\u0e15\u0e23": 4174, "\u0e17\u0e23\u0e31\u0e1e\u0e22": 4175, "\u0e30\u0e15\u0e37\u0e2d\u0e23\u0e37\u0e2d": 4176, "\u0e08\u0e4b": 4177, "\u0e2b\u0e25\u0e32\u0e01\u0e2b\u0e25\u0e32\u0e22": 4178, "\u0e40\u0e25\u0e37\u0e2d\u0e01\u0e15\u0e31\u0e49\u0e07": 4179, "\u0e2d\u0e40\u0e21\u0e23\u0e34\u0e01": 4180, "\u0e28\u0e31\u0e01\u0e14\u0e34": 4181, "\u0e1d\u0e23\u0e31\u0e48": 4182, "\u0e28\u0e31\u0e25\u0e22": 4183, "\u0e40\u0e08\u0e15\u0e19\u0e32": 4184, "\u0e2a\u0e34\u0e17\u0e18": 4185, "\u0e1e\u0e24\u0e2b\u0e31\u0e2a": 4186, "\u0e40\u0e1a\u0e49\u0e2d\u0e40\u0e23": 4187, "\u0e2d\u0e34\u0e40\u0e25\u0e47\u0e01\u0e15\u0e23\u0e2d\u0e19": 4188, "\u0e48\u0e23\u0e2b": 4189, "\u0e40\u0e07\u0e37\u0e48\u0e2d\u0e19": 4190, "\u0e1b\u0e23\u0e30\u0e0a\u0e32\u0e18\u0e34\u0e1b": 4191, "\u0e2d\u0e32\u0e13\u0e32\u0e08\u0e31\u0e01\u0e23": 4192, "\u0e01\u0e34\u0e23\u0e34\u0e22\u0e32": 4193, "\u0e40\u0e01\u0e25\u0e49\u0e32\u0e01\u0e23\u0e30": 4194, "\u0e2d\u0e32\u0e27\u0e38": 4195, "\u0e42\u0e04\u0e42\u0e25": 4196, "\u0e15\u0e23\u0e35\u0e19\u0e34": 4197, "\u0e2d\u0e04\u0e2d\u0e22": 4198, "\u0e40\u0e1d\u0e49\u0e32": 4199, "\u0e25\u0e35\u0e49\u0e22\u0e27": 4200, "\u0e25\u0e30\u0e2d\u0e2d": 4201, "\u0e35\u0e4b\u0e22\u0e27": 4202, "\u0e01\u0e02\u0e38": 4203, "\u0e02\u0e49\u0e32\u0e1e\u0e23\u0e30": 4204, "\u0e15\u0e34\u0e14\u0e15\u0e48\u0e2d": 4205, "\u0e01\u0e23\u0e30\u0e40\u0e1e\u0e32": 4206, "\u0e40\u0e1b\u0e4b\u0e32": 4207, "\u0e2d\u0e30\u0e44\u0e23": 4208, "\u0e1d\u0e49\u0e32": 4209, "\u0e2a\u0e38\u0e20\u0e32": 4210, "\u0e07\u0e2a\u0e32\u0e27": 4211, "\u0e1a\u0e38\u0e04\u0e25": 4212, "\u0e04\u0e38\u0e13\u0e1e\u0e23\u0e30": 4213, "\u0e2a\u0e31\u0e15\u0e27\u0e4c\u0e40\u0e25\u0e35\u0e49\u0e22\u0e07": 4214, "\u0e0b\u0e32\u0e2e\u0e32": 4215, "\u0e14\u0e47\u0e08": 4216, "\u0e19\u0e14\u0e35": 4217, "\u0e22\u0e38\u0e15\u0e34": 4218, "\u0e31\u0e0d\u0e0a\u0e32": 4219, "\u0e31\u0e13\u0e2b": 4220, "\u0e04\u0e23\u0e34\u0e2a": 4221, "\u0e1a\u0e31\u0e13\u0e11": 4222, "\u0e0d\u0e31\u0e15": 4223, "\u0e1a\u0e2d\u0e14\u0e35": 4224, "\u0e23\u0e38\u0e48\u0e07": 4225, "\u0e1b\u0e23\u0e30\u0e42\u0e22": 4226, "\u0e31\u0e07\u0e2b\u0e32": 4227, "\u0e40\u0e21\u0e23\u0e34": 4228, "\u0e2a\u0e32\u0e21\u0e31": 4229, "\u0e40\u0e2d\u0e01\u0e20": 4230, "\u0e16\u0e36\u0e01": 4231, "\u0e40\u0e19\u0e34\u0e19": 4232, "\u0e40\u0e1b\u0e49": 4233, "\u0e1e\u0e25\u0e31\u0e1a": 4234, "\u0e1b\u0e23\u0e35\u0e49": 4235, "\u0e35\u0e4b\u0e22": 4236, "\u0e01\u0e4d\u0e32\u0e21\u0e30": 4237, "\u0e40\u0e1e\u0e23\u0e32\u0e30": 4238, "\u0e47\u0e01\u0e0b\u0e35": 4239, "\u0e25\u0e32\u0e18\u0e34": 4240, "\u0e42\u0e23\u0e40": 4241, "\u0e49\u0e27\u0e01": 4242, "\u0e22\u0e32\u0e1a\u0e23\u0e23": 4243, "\u0e1b\u0e4a\u0e2d": 4244, "\u0e41\u0e04\u0e49": 4245, "\u0e40\u0e1e\u0e34\u0e01": 4246, "\u0e21\u0e1e\u0e4c": 4247, "\u0e40\u0e27\u0e17\u0e22\u0e4c": 4248, "\u0e34\u0e19\u0e17\u0e23\u0e35": 4249, "\u0e14\u0e32\u0e29": 4250, "\u0e01\u0e32\u0e23\u0e14\u0e4d\u0e32\u0e40\u0e19\u0e34\u0e19": 4251, "\u0e42\u0e25\u0e27\u0e35": 4252, "\u0e2d\u0e31\u0e04\u0e23": 4253, "\u0e38\u0e14\u0e2b": 4254, "\u0e23\u0e13\u0e23": 4255, "\u0e40\u0e06": 4256, "\u0e2a\u0e31\u0e15\u0e27\u0e4c\u0e40\u0e25": 4257, "\u0e41\u0e02\u0e47\u0e07\u0e15\u0e31\u0e27": 4258, "\u0e22\u0e38\u0e2b": 4259, "\u0e17\u0e18\u0e34": 4260, "\u0e42\u0e07\u0e48\u0e40": 4261, "\u0e2d\u0e31\u0e22\u0e01": 4262, "\u0e2a\u0e21\u0e40\u0e14": 4263, "\u0e15\u0e30\u0e1a": 4264, "\u0e2d\u0e18\u0e34\u0e01": 4265, "\u0e40\u0e22\u0e37\u0e48\u0e2d\u0e2b\u0e38\u0e49\u0e21": 4266, "\u0e41\u0e1a\u0e15": 4267, "\u0e25\u0e2d\u0e01\u0e04": 4268, "\u0e01\u0e34\u0e23\u0e34": 4269, "\u0e01\u0e32\u0e23\u0e40\u0e25\u0e37\u0e2d\u0e01": 4270, "\u0e2a\u0e25\u0e2d": 4271, "\u0e22\u0e48\u0e2d\u0e21": 4272, "\u0e22\u0e32\u0e15": 4273, "\u0e25\u0e37\u0e2d\u0e07": 4274, "\u0e25\u0e07\u0e15\u0e31\u0e27": 4275, "\u0e08\u0e34\u0e49\u0e07": 4276, "\u0e08\u0e34\u0e49\u0e07\u0e08": 4277, "\u0e22\u0e27\u0e1a": 4278, "\u0e2b\u0e27\u0e48": 4279, "\u0e15\u0e2d\u0e19\u0e40": 4280, "\u0e35\u0e4b": 4281, "\u0e49\u0e4d\u0e32\u0e2b": 4282, "\u0e21\u0e40\u0e1a\u0e2d\u0e23\u0e4c": 4283, "\u0e17\u0e35\u0e48\u0e1b\u0e23": 4284, "\u0e41\u0e2d\u0e19\u0e15": 4285, "\u0e1a\u0e31\u0e0d\u0e0a": 4286, "\u0e40\u0e17\u0e34\u0e19": 4287, "\u0e0b\u0e40\u0e1a": 4288, "\u0e23\u0e2d\u0e1a\u0e04": 4289, "\u0e1e\u0e25\u0e31\u0e07": 4290, "\u0e1c\u0e39\u0e49\u0e2a\u0e2d": 4291, "\u0e40\u0e01\u0e23\u0e07": 4292, "\u0e2a\u0e21\u0e20": 4293, "\u0e25\u0e37\u0e2d": 4294, "\u0e27\u0e01\u0e23\u0e32": 4295, "\u0e25\u0e37\u0e2d\u0e19": 4296, "\u0e28\u0e19\u0e35": 4297, "\u0e1b\u0e25\u0e2d\u0e14": 4298, "\u0e01\u0e23\u0e30\u0e14\u0e32\u0e29\u0e17": 4299, "\u0e40\u0e15\u0e23\u0e35": 4300, "\u0e17\u0e35\u0e40": 4301, "\u0e15\u0e31\u0e27\u0e02\u0e2d\u0e07": 4302, "\u0e2b\u0e21\u0e31\u0e19": 4303, "\u0e48\u0e22\u0e2d": 4304, "\u0e14\u0e21\u0e34\u0e19": 4305, "\u0e2b\u0e23\u0e31\u0e1a": 4306, "\u0e01\u0e01\u0e35\u0e49": 4307, "\u0e2a\u0e14\u0e38": 4308, "\u0e04\u0e24": 4309, "\u0e30\u0e1a\u0e30": 4310, "\u0e40\u0e27\u0e47": 4311, "\u0e4a\u0e30\u0e08": 4312, "\u0e40\u0e14\u0e47\u0e01\u0e41": 4313, "\u0e2d\u0e38\u0e49\u0e21": 4314, "\u0e41\u0e1f\u0e23": 4315, "\u0e25\u0e32\u0e14\u0e34\u0e19": 4316, "\u0e2b\u0e25\u0e32\u0e14": 4317, "\u0e28\u0e23\u0e27": 4318, "\u0e22\u0e47": 4319, "\u0e1a\u0e38\u0e23\u0e38": 4320, "\u0e41\u0e2b\u0e48": 4321, "\u0e23\u0e32\u0e0a\u0e2a\u0e21": 4322, "\u0e15\u0e38\u0e25": 4323, "\u0e30\u0e08\u0e34": 4324, "\u0e40\u0e04\u0e25\u0e35\u0e22": 4325, "\u0e1c\u0e25\u0e34": 4326, "\u0e1b\u0e49": 4327, "\u0e1a\u0e39\u0e40": 4328, "\u0e25\u0e31\u0e01\u0e40": 4329, "\u0e2d\u0e2a\u0e23": 4330, "\u0e17\u0e36\u0e01": 4331, "\u0e40\u0e23\u0e35\u0e22\u0e25": 4332, "\u0e2a\u0e31\u0e19\u0e15\u0e4c": 4333, "\u0e1a\u0e23\u0e23\u0e40": 4334, "\u0e14\u0e34\u0e23": 4335, "\u0e1b\u0e0f": 4336, "\u0e39\u0e2d\u0e2d": 4337, "\u0e37\u0e49\u0e2d\u0e22": 4338, "\u0e1e\u0e22\u0e32\u0e01\u0e23": 4339, "\u0e31\u0e1a\u0e1e\u0e25": 4340, "\u0e2d\u0e22\u0e38": 4341, "\u0e0a\u0e0d\u0e32": 4342, "\u0e14\u0e2d\u0e4d\u0e32\u0e19\u0e32\u0e08": 4343, "\u0e19\u0e31\u0e01\u0e40\u0e15": 4344, "\u0e40\u0e04\u0e23\u0e32": 4345, "\u0e28\u0e28": 4346, "\u0e21\u0e42\u0e0a": 4347, "\u0e19\u0e32\u0e16": 4348, "\u0e17\u0e27\u0e14": 4349, "\u0e40\u0e21\u0e15": 4350, "\u0e40\u0e22\u0e35\u0e48\u0e22": 4351, "\u0e30\u0e41\u0e21": 4352, "\u0e01\u0e02\u0e38\u0e19": 4353, "\u0e14\u0e38\u0e01": 4354, "\u0e41\u0e2a\u0e14": 4355, "\u0e42\u0e01\u0e2a": 4356, "\u0e2e\u0e32\u0e25": 4357, "\u0e01\u0e2d\u0e07\u0e17": 4358, "\u0e2d\u0e32\u0e2b\u0e32\u0e23\u0e40": 4359, "\u0e31\u0e01\u0e40\u0e2b": 4360, "\u0e40\u0e08\u0e49\u0e32\u0e1e": 4361, "\u0e22\u0e32\u0e2a": 4362, "\u0e40\u0e27\u0e19": 4363, "\u0e08\u0e0d": 4364, "\u0e2d\u0e23\u0e38": 4365, "\u0e08\u0e38\u0e21": 4366, "\u0e40\u0e2a\u0e1e": 4367, "\u0e15\u0e24": 4368, "\u0e23\u0e31\u0e07\u0e2a": 4369, "\u0e01\u0e32\u0e23\u0e41\u0e02": 4370, "\u0e32\u0e14\u0e19\u0e49\u0e4d\u0e32": 4371, "\u0e40\u0e07\u0e34\u0e19\u0e40": 4372, "\u0e13\u0e23": 4373, "\u0e1a\u0e39\u0e14": 4374, "\u0e42\u0e2b\u0e19": 4375, "\u0e16\u0e32\u0e07": 4376, "\u0e2a\u0e0b\u0e34": 4377, "\u0e15\u0e4a": 4378, "\u0e39\u0e49\u0e14": 4379, "\u0e01\u0e23\u0e30\u0e40\u0e1b": 4380, "\u0e32\u0e42\u0e15": 4381, "\u0e23\u0e21\u0e15": 4382, "\u0e30\u0e01\u0e30": 4383, "\u0e21\u0e30\u0e2b": 4384, "\u0e40\u0e07\u0e32": 4385, "\u0e21\u0e31\u0e0a": 4386, "\u0e23\u0e49\u0e32\u0e07": 4387, "\u0e01\u0e32\u0e23\u0e0b": 4388, "\u0e2a\u0e32\u0e17": 4389, "\u0e23\u0e30\u0e01\u0e32": 4390, "\u0e19\u0e17\u0e23\u0e35": 4391, "\u0e40\u0e21\u0e19\u0e15": 4392, "\u0e2d\u0e30\u0e25": 4393, "\u0e23\u0e32\u0e1e": 4394, "\u0e04\u0e35\u0e48": 4395, "\u0e08\u0e34\u0e07": 4396, "\u0e30\u0e41\u0e1a": 4397, "\u0e1e\u0e23\u0e30\u0e40": 4398, "\u0e23\u0e31\u0e48\u0e07": 4399, "\u0e27\u0e31\u0e15": 4400, "\u0e21\u0e40\u0e2b": 4401, "\u0e0b\u0e35\u0e23": 4402, "\u0e2b\u0e2d\u0e22\u0e17": 4403, "\u0e27\u0e2b\u0e32": 4404, "\u0e04\u0e21\u0e19": 4405, "\u0e2d\u0e04\u0e27": 4406, "\u0e27\u0e2d\u0e23\u0e4c": 4407, "\u0e2b\u0e21\u0e2d\u0e07": 4408, "\u0e41\u0e21\u0e48\u0e40": 4409, "\u0e21\u0e2d\u0e1a": 4410, "\u0e23\u0e21\u0e27": 4411, "\u0e2d\u0e21\u0e23": 4412, "\u0e2a\u0e15\u0e34": 4413, "\u0e17\u0e48\u0e2d\u0e19": 4414, "\u0e2d\u0e07\u0e15\u0e32": 4415, "\u0e32\u0e17\u0e23\u0e31\u0e1e\u0e22\u0e4c": 4416, "\u0e1b\u0e42\u0e1b": 4417, "\u0e21\u0e48\u0e27": 4418, "\u0e22\u0e40\u0e14": 4419, "\u0e1a\u0e1c\u0e49\u0e32": 4420, "\u0e22\u0e38\u0e01": 4421, "\u0e0b\u0e34\u0e21": 4422, "\u0e01\u0e40\u0e09": 4423, "\u0e01\u0e23\u0e30\u0e15": 4424, "\u0e04\u0e27\u0e32\u0e21\u0e2a\u0e19": 4425, "\u0e21\u0e24": 4426, "\u0e19\u0e20\u0e32": 4427, "\u0e19\u0e44\u0e25": 4428, "\u0e23\u0e38\u0e07\u0e23": 4429, "\u0e40\u0e2b\u0e19\u0e35\u0e22": 4430, "\u0e2b\u0e27\u0e07": 4431, "\u0e2d\u0e22\u0e32": 4432, "\u0e40\u0e2d\u0e35\u0e22": 4433, "\u0e38\u0e17\u0e18\u0e28\u0e32\u0e2a": 4434, "\u0e2a\u0e48\u0e2d": 4435, "\u0e40\u0e04\u0e35\u0e22": 4436, "\u0e2b\u0e25\u0e37": 4437, "\u0e30\u0e17\u0e32\u0e07": 4438, "\u0e04\u0e27\u0e32\u0e21\u0e1b\u0e23": 4439, "\u0e40\u0e15\u0e2a": 4440, "\u0e17\u0e34\u0e0a": 4441, "\u0e04\u0e2d\u0e23\u0e4c\u0e23\u0e31": 4442, "\u0e13\u0e17": 4443, "\u0e4d\u0e32\u0e04": 4444, "\u0e04\u0e2d\u0e19\u0e40": 4445, "\u0e31\u0e48\u0e27\u0e40": 4446, "\u0e2a\u0e21\u0e21": 4447, "\u0e21\u0e34\u0e27": 4448, "\u0e32\u0e01\u0e31": 4449, "\u0e14\u0e35\u0e41": 4450, "\u0e2a\u0e49\u0e19": 4451, "\u0e42\u0e1b\u0e23\u0e15": 4452, "\u0e01\u0e32\u0e23\u0e1e\u0e34": 4453, "\u0e40\u0e2b\u0e32": 4454, "\u0e2a\u0e21\u0e38\u0e17\u0e23\u0e2a": 4455, "\u0e04\u0e0a\u0e32": 4456, "\u0e2b\u0e21\u0e27\u0e01\u0e40": 4457, "\u0e1f\u0e40": 4458, "\u0e32\u0e43\u0e1a": 4459, "\u0e14\u0e2d\u0e22": 4460, "\u0e21\u0e32\u0e23\u0e35": 4461, "\u0e4d\u0e32\u0e21\u0e30\u0e19\u0e32": 4462, "\u0e02\u0e2d\u0e07\u0e01": 4463, "\u0e40\u0e04\u0e25": 4464, "\u0e32\u0e22\u0e41\u0e1e": 4465, "\u0e27\u0e34\u0e0a\u0e32": 4466, "\u0e04\u0e31\u0e19\u0e40": 4467, "\u0e1e\u0e2a": 4468, "\u0e42\u0e1b\u0e25": 4469, "\u0e25\u0e21\u0e2d": 4470, "\u0e1b\u0e25\u0e31\u0e01": 4471, "\u0e1e\u0e23\u0e35": 4472, "\u0e01\u0e32\u0e23\u0e2a\u0e32": 4473, "\u0e21\u0e06": 4474, "\u0e25\u0e39\u0e01\u0e40": 4475, "\u0e23\u0e31\u0e10\u0e1b\u0e23\u0e30": 4476, "\u0e19\u0e32\u0e04\u0e21": 4477, "\u0e40\u0e1e\u0e01": 4478, "\u0e23\u0e30\u0e1e\u0e32": 4479, "\u0e15\u0e23\u0e39": 4480, "\u0e1e\u0e19\u0e32": 4481, "\u0e38\u0e15\u0e34": 4482, "\u0e1a\u0e32\u0e2a": 4483, "\u0e01\u0e0f": 4484, "\u0e01\u0e35\u0e48": 4485, "\u0e04\u0e27\u0e32\u0e21\u0e40\u0e2a": 4486, "\u0e1b\u0e31\u0e15\u0e22": 4487, "\u0e2a\u0e38\u0e40": 4488, "\u0e04\u0e23\u0e1a": 4489, "\u0e27\u0e07\u0e1e": 4490, "\u0e01\u0e37\u0e2d": 4491, "\u0e21\u0e40\u0e08": 4492, "\u0e02\u0e1a\u0e27": 4493, "\u0e01\u0e24": 4494, "\u0e25\u0e32\u0e22\u0e40": 4495, "\u0e23\u0e49\u0e07": 4496, "\u0e04\u0e27\u0e32\u0e21\u0e0b": 4497, "\u0e02\u0e32\u0e01": 4498, "\u0e32\u0e22\u0e38": 4499, "\u0e40\u0e01\u0e2a": 4500, "\u0e32\u0e23\u0e4c\u0e21": 4501, "\u0e01\u0e23\u0e38": 4502, "\u0e25\u0e34\u0e21": 4503, "\u0e0a\u0e14": 4504, "\u0e47\u0e01\u0e19": 4505, "\u0e1c\u0e49\u0e32\u0e19": 4506, "\u0e1e\u0e41": 4507, "\u0e07\u0e2d\u0e22": 4508, "\u0e01\u0e32\u0e23\u0e25\u0e2d": 4509, "\u0e27\u0e35\u0e22\u0e19": 4510, "\u0e21\u0e34\u0e14": 4511, "\u0e01\u0e04\u0e39": 4512, "\u0e41\u0e25\u0e49": 4513, "\u0e2d\u0e37\u0e2d": 4514, "\u0e2d\u0e44": 4515, "\u0e31\u0e1a\u0e1b": 4516, "\u0e19\u0e18\u0e23\u0e23\u0e21": 4517, "\u0e2a\u0e34\u0e01": 4518, "\u0e32\u0e14\u0e25": 4519, "\u0e02\u0e36": 4520, "\u0e19\u0e01\u0e41": 4521, "\u0e32\u0e2a\u0e35": 4522, "\u0e35\u0e4a": 4523, "\u0e01\u0e32\u0e23\u0e16": 4524, "\u0e2a\u0e32\u0e04": 4525, "\u0e02\u0e23": 4526, "\u0e1b\u0e32\u0e21": 4527, "\u0e32\u0e2a\u0e38\u0e01": 4528, "\u0e02\u0e25\u0e34": 4529, "\u0e19\u0e42\u0e22": 4530, "\u026fa\u032f": 4531, "\u0e2b\u0e23\u0e34": 4532, "\u0e40\u0e15\u0e34": 4533, "\u0e1b\u0e2d\u0e23\u0e4c": 4534, "\u0e42\u0e2d\u0e25\u0e34": 4535, "\u0e19\u0e27\u0e22": 4536, "\u0e09\u0e25\u0e32": 4537, "\u0e0a\u0e32\u0e27\u0e1a": 4538, "\u0e41\u0e01\u0e42": 4539, "\u0e34\u0e19\u0e34": 4540, "\u0e2a\u0e23\u0e35": 4541, "\u0e04\u0e27\u0e32\u0e21\u0e40\u0e02\u0e49": 4542, "\u0e22\u0e32\u0e25": 4543, "\u0e1b\u0e17\u0e32\u0e19": 4544, "\u0e2d\u0e32\u0e27": 4545, "\u0e21\u0e13": 4546, "\u0e23\u0e31\u0e1a\u0e02\u0e2d\u0e07": 4547, "\u0e2d\u0e23\u0e4c\u0e01": 4548, "\u0e0b\u0e15\u0e32": 4549, "\u0e17\u0e2d\u0e07\u0e41": 4550, "\u0e19\u0e31\u0e01\u0e01\u0e32": 4551, "\u0e23\u0e31\u0e10\u0e1a": 4552, "\u0e21\u0e32\u0e40": 4553, "\u0e28\u0e23\u0e31": 4554, "\u0e0b\u0e1a": 4555, "\u0e44\u0e2a\u0e49\u0e15": 4556, "\u0e34\u0e19\u0e31\u0e22": 4557, "\u0e0b\u0e14": 4558, "\u0e40\u0e16\u0e49\u0e32": 4559, "\u0e21\u0e32\u0e1a": 4560, "\u0e38\u0e07\u0e15\u0e35": 4561, "\u0e04\u0e27\u0e32\u0e21\u0e2a\u0e4d\u0e32": 4562, "\u0e25\u0e31\u0e19": 4563, "\u0e01\u0e23\u0e30\u0e14\u0e39\u0e01\u0e2a": 4564, "\u0e01\u0e4d\u0e32\u0e01": 4565, "\u0e19\u0e17\u0e14": 4566, "\u0e1f\u0e19": 4567, "\u0e23\u0e35\u0e15": 4568, "\u0e40\u0e01\u0e49": 4569, "\u0e25\u0e49\u0e2d\u0e07\u0e08": 4570, "\u0e2b\u0e22\u0e35": 4571, "\u0e20\u0e23\u0e13": 4572, "\u0e2a\u0e35\u0e19": 4573, "\u0e1a\u0e2d\u0e19": 4574, "\u0e42\u0e21\u0e01": 4575, "\u0e30\u0e2b\u0e25\u0e48\u0e4d\u0e32": 4576, "\u0e32\u0e01\u0e23\u0e23\u0e21": 4577, "\u0e2b\u0e25\u0e01": 4578, "\u0e0a\u0e19\u0e21": 4579, "\u0e0a\u0e2d": 4580, "\u0e04\u0e19\u0e35": 4581, "\u0e23\u0e44\u0e17": 4582, "\u0e15\u0e07": 4583, "\u0e2d\u0e31\u0e28\u0e27": 4584, "\u0e2d\u0e32\u0e04": 4585, "\u0e21\u0e2a\u0e23": 4586, "\u0e23\u0e32\u0e15": 4587, "\u0e32\u0e01\u0e01\u0e32": 4588, "\u0e32\u0e27\u0e38\u0e18": 4589, "\u0e21\u0e02\u0e49": 4590, "\u0e40\u0e1b\u0e25\u0e35\u0e48\u0e22": 4591, "\u0e2b\u0e31\u0e27\u0e40\u0e02": 4592, "\u0e49\u0e32\u0e1f\u0e49\u0e32": 4593, "\u0e42\u0e25\u0e2b": 4594, "\u0e01\u0e48\u0e32": 4595, "\u0e19\u0e02": 4596, "\u0e19\u0e1a\u0e39": 4597, "\u0e21\u0e30\u0e40": 4598, "\u0e39\u0e01\u0e15": 4599, "\u0e02\u0e32\u0e21": 4600, "\u0e1b\u0e04": 4601, "\u0e01\u0e31\u0e07": 4602, "\u0e23\u0e35\u0e19": 4603, "\u0e15\u0e38\u0e4a\u0e01\u0e15": 4604, "\u0e34\u0e19\u0e17\u0e32": 4605, "\u0e21\u0e48\u0e21": 4606, "\u0e21\u0e40": 4607, "\u0e2d\u0e25\u0e39": 4608, "\u0e22\u0e31\u0e27": 4609, "\u0e1b\u0e14": 4610, "\u0e48\u0e32\u0e0b": 4611, "\u0e14\u0e41": 4612, "\u0e01\u0e32\u0e23\u0e30\u0e40": 4613, "\u0e40\u0e01\u0e37\u0e2d": 4614, "\u0e17\u0e18": 4615, "\u0e04\u0e13\u0e34": 4616, "\u0e32\u0e17\u0e2d": 4617, "\u0e1c\u0e39\u0e49\u0e2d": 4618, "\u0e43\u0e1a\u0e40": 4619, "\u0e1c\u0e19": 4620, "\u0e25\u0e25\u0e39": 4621, "\u0e1f\u0e01": 4622, "\u0e27\u0e34\u0e17\u0e22": 4623, "\u0e0b\u0e19": 4624, "\u0e17\u0e49\u0e27": 4625, "\u0e2a\u0e07\u0e2a": 4626, "\u0e17\u0e4d\u0e32\u0e40": 4627, "\u0e11\u0e39\u0e23": 4628, "\u0e02\u0e07": 4629, "\u0e1e\u0e4c": 4630, "\u0e02\u0e35\u0e49\u0e40\u0e2b\u0e25": 4631, "\u0e40\u0e01\u0e2d": 4632, "\u0e2d\u0e40\u0e23\u0e48": 4633, "\u0e40\u0e02\u0e21": 4634, "\u0e1b\u0e23\u0e30\u0e21": 4635, "\u0e21\u0e01\u0e31": 4636, "\u0e22\u0e32\u0e19\u0e2d": 4637, "\u0e19\u0e31\u0e19": 4638, "\u0e19\u0e34\u0e14": 4639, "\u0e30\u0e40\u0e21\u0e34": 4640, "\u0e01\u0e40\u0e1b\u0e35\u0e22": 4641, "\u0e22\u0e32\u0e41": 4642, "\u0e47\u0e01": 4643, "\u0e48\u0e21\u0e0a\u0e39": 4644, "\u0e19\u0e2b\u0e19\u0e32": 4645, "\u0e01\u0e32\u0e23\u0e40\u0e02": 4646, "\u0e41\u0e2d\u0e19": 4647, "\u0e40\u0e1b\u0e47\u0e19\u0e1d": 4648, "\u0e38\u0e02": 4649, "\u0e40\u0e1f\u0e37\u0e48\u0e2d": 4650, "\u0e2d\u0e32\u0e2a": 4651, "\u0e40\u0e0a\u0e25": 4652, "\u0e2b\u0e25\u0e35": 4653, "\u0e2a\u0e32\u0e22\u0e1b": 4654, "\u0e21\u0e42\u0e2b": 4655, "\u0e2a\u0e40\u0e01": 4656, "\u0e22\u0e27\u0e23\u0e23": 4657, "\u0e23\u0e30\u0e1e\u0e31\u0e19": 4658, "\u0e38\u0e23\u0e1e": 4659, "\u0e0b\u0e48\u0e2d": 4660, "\u0e14\u0e31\u0e1a\u0e15": 4661, "\u0e01\u0e0b": 4662, "\u0e48\u0e2d\u0e07\u0e15": 4663, "\u0e4c\u0e40\u0e19": 4664, "\u0e31\u0e48\u0e07\u0e40\u0e1b": 4665, "\u0e21\u0e25\u0e17": 4666, "\u0e2d\u0e07\u0e39": 4667, "\u0e1b\u0e1b": 4668, "\u0e34\u0e0a\u0e32": 4669, "\u0e07\u0e2d\u0e19": 4670, "\u0e23\u0e1b": 4671, "\u0e42\u0e01\u0e25\u0e32": 4672, "\u0e1c\u0e39\u0e49\u0e08": 4673, "\u0e04\u0e2b": 4674, "\u0e04\u0e25\u0e2d": 4675, "\u0e04\u0e27\u0e32\u0e21\u0e42": 4676, "\u0e25\u0e35\u0e49\u0e22\u0e07": 4677, "\u0e23\u0e37\u0e48": 4678, "\u0e48\u0e32\u0e15\u0e31\u0e14": 4679, "\u0e23\u0e30\u0e1a\u0e2d": 4680, "\u0e19\u0e31\u0e01\u0e1b": 4681, "\u0e32\u0e18": 4682, "\u0e01\u0e32\u0e23\u0e2a\u0e27": 4683, "\u0e34\u0e48\u0e07\u0e17\u0e2d": 4684, "\u0e2a\u0e15\u0e23\u0e32": 4685, "\u0e23\u0e31\u0e2a\u0e40\u0e0b": 4686, "\u0e30\u0e02\u0e32": 4687, "\u0e49\u0e32\u0e19\u0e02\u0e32": 4688, "\u0e21\u0e40\u0e1a": 4689, "\u0e27\u0e23\u0e2a": 4690, "\u0e23\u0e2d": 4691, "\u0e47\u0e14\u0e40\u0e25\u0e37\u0e2d\u0e14": 4692, "\u0e1a\u0e0a\u0e31": 4693, "\u0e31\u0e2a\u0e01\u0e32\u0e23": 4694, "\u0e2d\u0e41\u0e2b\u0e25": 4695, "\u0e40\u0e01\u0e15": 4696, "\u0e40\u0e04\u0e23\u0e37\u0e48\u0e2d\u0e07\u0e0a": 4697, "\u0e1b\u0e32\u0e01\u0e04": 4698, "\u0e1b\u0e32\u0e01\u0e40": 4699, "\u0e32\u0e42\u0e01": 4700, "\u0e31\u0e01\u0e02": 4701, "\u0e07\u0e08\u0e31": 4702, "\u0e22\u0e25": 4703, "\u0e25\u0e32\u0e1a": 4704, "\u0e14\u0e34\u0e19\u0e14": 4705, "\u0e41\u0e21\u0e49": 4706, "\u0e31\u0e19\u0e04": 4707, "\u0e08\u0e09": 4708, "\u0e27\u0e19\u0e40": 4709, "\u0e27\u0e34\u0e1a": 4710, "\u0e34\u0e40\u0e1a": 4711, "\u0e21\u0e30\u0e19": 4712, "\u0e14\u0e35\u0e19": 4713, "\u0e07\u0e48\u0e32": 4714, "\u0e40\u0e2b\u0e47": 4715, "\u0e2d\u0e4a": 4716, "\u0e30\u0e19": 4717, "\u0e40\u0e22\u0e37\u0e2d": 4718, "\u0e2a\u0e39\u0e15": 4719, "\u0e1c\u0e39\u0e49\u0e23": 4720, "\u0e04\u0e25\u0e32": 4721, "\u0e1a\u0e40\u0e1a\u0e34\u0e25": 4722, "\u0e19\u0e1e": 4723, "\u0e32\u0e19\u0e49\u0e4d\u0e32": 4724, "\u0e21\u0e23\u0e31\u0e1a": 4725, "\u0e1b\u0e24": 4726, "\u0e1b\u0e4b": 4727, "\u0e32\u0e14\u0e34": 4728, "\u0e15\u0e30\u0e44": 4729, "\u0e32\u0e19\u0e02\u0e32\u0e22": 4730, "\u0e15\u0e23\u0e30\u0e01": 4731, "\u0e19\u0e32\u0e07\u0e40": 4732, "\u0e1b\u0e4a\u0e1b": 4733, "\u0e14\u0e49\u0e27": 4734, "\u0e47": 4735, "\u0e21\u0e48\u0e2d\u0e22\u0e39\u0e48": 4736, "\u0e34\u0e2a\u0e38\u0e17\u0e18\u0e34": 4737, "\u0e2a\u0e39\u0e07\u0e2a": 4738, "\u0e42\u0e19\u0e21": 4739, "\u0e20\u0e32\u0e29\u0e32\u0e1b": 4740, "\u0e22\u0e48\u0e32": 4741, "\u0e34\u0e15\u0e32": 4742, "\u0e1f\u0e34\u0e25": 4743, "\u0e2b\u0e22\u0e48": 4744, "\u0e22\u0e1a": 4745, "\u0e1b\u0e35\u0e01\u0e01": 4746, "\u0e48\u0e40\u0e07\u0e48\u0e32": 4747, "\u0e02\u0e42": 4748, "\u0e4d\u0e32\u0e19\u0e27\u0e19": 4749, "\u0e2d\u0e18": 4750, "\u0e19\u0e23\u0e21": 4751, "\u0e22\u0e32\u0e2b": 4752, "\u0e1a\u0e30": 4753, "\u0e01\u0e23\u0e30\u0e40\u0e1b\u0e4b\u0e32\u0e40": 4754, "\u0e23\u0e4c\u0e21": 4755, "\u0e23\u0e35\u0e22": 4756, "\u0e34\u0e08\u0e34\u0e15\u0e23": 4757, "\u0e48\u0e2d\u0e07\u0e40\u0e17": 4758, "\u0e01\u0e40\u0e2a\u0e35\u0e22\u0e07": 4759, "\u0e07\u0e48": 4760, "\u032f": 4761, "\u0e2b\u0e31\u0e27\u0e14": 4762, "\u0e15\u0e38\u0e48": 4763, "\u0e23\u0e38\u0e1b": 4764, "\u0e07\u0e08\u0e31\u0e01\u0e23": 4765, "\u0e04\u0e37": 4766, "\u0e0b\u0e39\u0e23": 4767, "\u0e22\u0e15\u0e31\u0e27": 4768, "\u0e1f\u0e37\u0e2d": 4769, "\u0e40\u0e07\u0e34": 4770, "\u0e1b\u0e23\u0e30\u0e2a\u0e34": 4771, "\u0e09\u0e31": 4772, "\u0e2d\u0e2a\u0e42\u0e15": 4773, "\u0e40\u0e23\u0e37\u0e48\u0e2d": 4774, "\u0e07\u0e40\u0e2b\u0e25\u0e37\u0e2d": 4775, "\u0e34\u0e08\u0e34": 4776, "\u0e23\u0e4c\u0e23": 4777, "\u0e40\u0e1b\u0e48": 4778, "\u0e2a\u0e38\u0e19": 4779, "\u0e25\u0e39\u0e01\u0e01\u0e23": 4780, "\u0e40\u0e2b\u0e21\u0e37\u0e2d": 4781, "\u0e38\u0e29\u0e22\u0e4c": 4782, "\u0e19\u0e2b\u0e25\u0e31\u0e07": 4783, "\u0e27\u0e34\u0e01\u0e32": 4784, "\u0e2d\u0e43\u0e08": 4785, "\u0e34\u0e25\u0e32": 4786, "\u0e15\u0e37": 4787, "\u0e01\u0e32\u0e23\u0e2a\u0e19": 4788, "\u0e49\u0e19\u0e40\u0e02": 4789, "\u0e25\u0e01\u0e34\u0e19": 4790, "\u0e4a\u0e2d\u0e1b": 4791, "\u0e35\u0e2d\u0e32\u0e23": 4792, "\u0e23\u0e35\u0e42": 4793, "\u0e01\u0e4d\u0e32\u0e22": 4794, "\u0e19\u0e34\u0e22": 4795, "\u0e16\u0e31\u0e07\u0e02": 4796, "\u0e40\u0e1a\u0e2d\u0e23\u0e4c\u0e23": 4797, "\u0e0a\u0e34\u0e25": 4798, "\u0e19\u0e18\u0e23\u0e23": 4799, "\u0e40\u0e0b\u0e40": 4800, "\u0e41\u0e15\u0e48\u0e07\u0e15\u0e31": 4801, "\u0e01\u0e32\u0e23\u0e40\u0e08": 4802, "\u0e27\u0e01\u0e27\u0e48\u0e32": 4803, "\u0e4d\u0e32\u0e1e\u0e31\u0e07": 4804, "\u0e15\u0e25": 4805, "\u0e21\u0e23\u0e23": 4806, "\u0e0a\u0e37\u0e49": 4807, "\u0e01\u0e19\u0e34\u0e01": 4808, "\u0e4d\u0e32\u0e2d\u0e32": 4809, "\u0e23\u0e39\u0e2b\u0e19": 4810, "\u0e2b\u0e23\u0e32": 4811, "\u0e25\u0e31": 4812, "\u0e40\u0e04\u0e23\u0e37\u0e48\u0e2d\u0e07\u0e2a": 4813, "\u0e1b\u0e40\u0e1b": 4814, "\u0e31\u0e1a\u0e40\u0e1e": 4815, "\u0e1b\u0e23\u0e30\u0e04": 4816, "\u0e44\u0e04\u0e42": 4817, "\u0e2b\u0e38": 4818, "\u0e17\u0e35\u0e48\u0e2a": 4819, "\u0e17\u0e07": 4820, "\u0e40\u0e2d\u0e40": 4821, "\u0e19\u0e48\u0e32\u0e2a": 4822, "\u0e31\u0e01\u0e01": 4823, "\u0e43\u0e2a\u0e48\u0e44": 4824, "\u0e44\u0e2d\u0e40": 4825, "\u0e42\u0e0b\u0e40": 4826, "\u0e0b\u0e32\u0e25": 4827, "\u0e01\u0e07\u0e01": 4828, "\u0e31\u0e14\u0e01\u0e23": 4829, "\u0e21\u0e49": 4830, "\u0e23\u0e36\u0e48\u0e07": 4831, "\u0e16\u0e48\u0e32": 4832, "\u0e25\u0e31\u0e17\u0e18\u0e34\u0e04": 4833, "\u0e30\u0e1e\u0e23": 4834, "\u0e31\u0e25\u0e25": 4835, "\u0e04\u0e23\u0e2d": 4836, "\u0e01\u0e32\u0e23\u0e04\u0e23": 4837, "\u0e25\u0e49\u0e32\u0e07\u0e01": 4838, "aw": 4839, "\u0e2d\u0e23\u0e4c\u0e41": 4840, "\u0e31\u0e1b": 4841, "\u0e40\u0e0b\u0e48": 4842, "\u0e19\u0e15\u0e23\u0e4c": 4843, "\u0e15\u0e2d\u0e23\u0e4c": 4844, "\u0e23\u0e32\u0e40\u0e0b": 4845, "\u0e40\u0e1a\u0e37": 4846, "\u0e38\u0e13": 4847, "\u0e1a\u0e34\u0e0a": 4848, "\u0e19\u0e49\u0e4d\u0e32\u0e15": 4849, "\u0e01\u0e32\u0e23\u0e01\u0e23": 4850, "\u0e2a\u0e19\u0e34": 4851, "\u0e40\u0e15\u0e49\u0e32\u0e19": 4852, "\u0e15\u0e30\u0e27\u0e31\u0e19\u0e2d": 4853, "\u0e15\u0e25\u0e32\u0e14\u0e2b": 4854, "\u0e21\u0e37\u0e2d\u0e19": 4855, "\u0e2b\u0e23\u0e35": 4856, "\u0e38\u0e48\u0e07": 4857, "\u0e23\u0e48\u0e32\u0e07\u0e01": 4858, "\u0e20\u0e38": 4859, "\u0e19\u0e35\u0e22\u0e1a": 4860, "\u0e1a\u0e49\u0e27": 4861, "\u0e15\u0e2a\u0e27": 4862, "\u0e43\u0e2b": 4863, "\u0e22\u0e27": 4864, "\u0e27\u0e34\u0e18": 4865, "\u0e40\u0e1e\u0e37\u0e48\u0e2d\u0e19\u0e23\u0e48\u0e27\u0e21\u0e0a": 4866, "\u0e2d\u0e38\u0e1a\u0e32": 4867, "\u0e40\u0e1b\u0e2d\u0e23\u0e4c\u0e40\u0e0b": 4868, "\u0e23\u0e30\u0e1a": 4869, "\u0e01\u0e31\u0e19\u0e0a": 4870, "\u0e21\u0e40\u0e21": 4871, "\u0e23\u0e49\u0e2d\u0e19\u0e43": 4872, "\u0e23\u0e17\u0e32": 4873, "\u0e0b\u0e32\u0e15": 4874, "\u0e19\u0e35\u0e22\u0e27": 4875, "\u0e31\u0e14\u0e15\u0e2d": 4876, "\u0e09\u0e27": 4877, "\u0e17\u0e41": 4878, "\u0e0b\u0e49": 4879, "\u0e32\u0e28\u0e23": 4880, "\u0e22\u0e15": 4881, "\u0e21\u0e48": 4882, "\u0e42\u0e2d\u0e14": 4883, "\u0e07\u0e0b\u0e31\u0e01": 4884, "\u0e21\u0e15": 4885, "\u0e1c\u0e22\u0e2d": 4886, "\u0e2a\u0e32\u0e2b": 4887, "\u0e07\u0e1b": 4888, "\u0e32\u0e19\u0e17\u0e35": 4889, "\u0e31\u0e01\u0e02\u0e31": 4890, "\u0e19\u0e21\u0e40\u0e1b": 4891, "\u0e01\u0e23\u0e27": 4892, "\u0e04\u0e27\u0e32\u0e21\u0e40\u0e23": 4893, "\u0e4c\u0e14": 4894, "\u0e40\u0e2b\u0e25\u0e48": 4895, "\u0e15\u0e40\u0e27": 4896, "\u0e4c\u0e21\u0e32\u0e23\u0e4c\u0e40": 4897, "\u0e25\u0e15\u0e48\u0e32": 4898, "\u0e31\u0e07\u0e40": 4899, "\u0e14\u0e38": 4900, "\u0e40\u0e14\u0e47": 4901, "\u0e04\u0e23\u0e48": 4902, "\u0e32\u0e0b\u0e35": 4903, "\u0e2b\u0e21\u0e32\u0e01\u0e23": 4904, "\u0e32\u0e27\u0e2a\u0e32": 4905, "\u0e19\u0e39": 4906, "\u0e40\u0e0b\u0e25\u0e25": 4907, "\u0e32\u0e19\u0e21\u0e32": 4908, "\u0e49\u0e19\u0e08": 4909, "\u0e38\u0e0d": 4910, "\u0e23\u0e34\u0e22\u0e32": 4911, "\u0e40\u0e2b\u0e25\u0e35\u0e48\u0e22\u0e21\u0e14\u0e49\u0e32\u0e19": 4912, "\u0e17\u0e40\u0e19": 4913, "\u0e42\u0e21\u0e42": 4914, "\u0e17\u0e48": 4915, "\u0e42\u0e1b\u0e42": 4916, "\u0e19\u0e2b\u0e32": 4917, "\u0e01\u0e25\u0e49\u0e27": 4918, "\u0e23\u0e48\u0e27": 4919, "\u0e17\u0e38\u0e01\u0e17": 4920, "\u0e07\u0e35": 4921, "\u0e2b\u0e27\u0e32": 4922, "\u0e31\u0e14\u0e40\u0e17": 4923, "\u0e01\u0e31\u0e13": 4924, "\u0e09\u0e48": 4925, "\u0e40\u0e09\u0e37": 4926, "\u0e32\u0e25\u0e31": 4927, "\u0e2b\u0e48": 4928, "\u0e34\u0e04": 4929, "\u0e4c\u0e1f\u0e34": 4930, "\u0e32\u0e04\u0e25\u0e2d": 4931, "\u0e19\u0e22\u0e32": 4932, "\u0e1a\u0e23\u0e31": 4933, "\u0e07\u0e15\u0e31\u0e27": 4934, "\u0e32\u0e2b\u0e32\u0e23": 4935, "\u0e34\u0e40\u0e17\u0e28": 4936, "\u0e32\u0e1a\u0e31\u0e15": 4937, "\u0e31\u0e07\u0e44": 4938, "\u0e1b\u0e25\u0e48\u0e2d\u0e22\u0e27": 4939, "\u0e35\u0e41\u0e21": 4940, "\u0e01\u0e32\u0e23\u0e07": 4941, "\u0e0a\u0e32\u0e19\u0e40": 4942, "\u0e37\u0e21": 4943, "\u0e32\u0e21\u0e01\u0e25\u0e32\u0e07": 4944, "\u0e19\u0e23\u0e31\u0e01": 4945, "\u0e01\u0e41\u0e15\u0e48\u0e07": 4946, "\u0e21\u0e32\u0e2b": 4947, "\u0e14\u0e40\u0e14": 4948, "\u0e01\u0e23\u0e30\u0e40\u0e0b": 4949, "\u0e23\u0e17\u0e30": 4950, "\u0e19\u0e40\u0e14\u0e37\u0e2d\u0e19": 4951, "\u0e2b\u0e23\u0e48": 4952, "\u0e34\u0e42": 4953, "\u0e40\u0e2a\u0e49\u0e19\u0e43": 4954, "\u0e22\u0e27\u0e32": 4955, "\u0e19\u0e22": 4956, "\u0e19\u0e15\u0e34\u0e01": 4957, "\u0e08\u0e34\u0e49": 4958, "\u0e31\u0e19\u0e41\u0e2b\u0e48\u0e07": 4959, "\u0e2a\u0e32\u0e21\u0e2a\u0e34\u0e1a\u0e40": 4960, "\u0e25\u0e36": 4961, "\u0e1a\u0e16": 4962, "\u0e0b\u0e37": 4963, "\u0e1e\u0e1a\u0e38\u0e23": 4964, "\u0e2d\u0e47": 4965, "\u0e31\u0e01\u0e40\u0e02\u0e35\u0e22": 4966, "\u0e15\u0e40\u0e19": 4967, "\u0e01\u0e4a\u0e2d": 4968, "\u0e27\u0e34\u0e19\u0e32": 4969, "\u0e31\u0e1a\u0e1c\u0e34\u0e14": 4970, "\u0e40\u0e25\u0e37\u0e2d\u0e14\u0e01": 4971, "\u0e32\u0e40\u0e23": 4972, "\u0e25\u0e34\u0e28": 4973, "\u0e02\u0e21\u0e31": 4974, "\u0e30\u0e01": 4975, "\u0e4d\u0e32\u0e19\u0e32": 4976, "\u0e27\u0e32\u0e07\u0e21": 4977, "\u0e1b\u0e23\u0e30\u0e17\u0e31": 4978, "\u0e23\u0e4c\u0e1f": 4979, "\u0e27\u0e31\u0e19\u0e17": 4980, "\u0e0b\u0e38": 4981, "\u0e19\u0e40\u0e14\u0e35\u0e22\u0e27": 4982, "\u0e30\u0e25\u0e32": 4983, "\u0e08\u0e19\u0e32": 4984, "\u0e27\u0e14\u0e4c": 4985, "\u0e0d\u0e35": 4986, "\u0e31\u0e19\u0e16": 4987, "\u0e21\u0e30\u0e19\u0e32": 4988, "\u0e01\u0e32\u0e23\u0e14": 4989, "\u0e34\u0e21\u0e2b": 4990, "\u0e23\u0e49\u0e2d\u0e22\u0e02": 4991, "\u0e40\u0e02\u0e49\u0e32\u0e40": 4992, "\u0e27\u0e22\u0e32\u0e01": 4993, "\u0e40\u0e08\u0e49\u0e32\u0e0a": 4994, "\u0e36": 4995, "\u0e4a": 4996, "\u0e4d": 4997, "\u0e37": 4998, "\u0361": 4999, "\u0255": 5000, "\u02e8": 5001, "\u02e6": 5002, "\u02e5": 5003, "\u02e9": 5004}